<pad>	0
<s>	0
</s>	0
<unk>	0
s	-2.85529
▁,	-3.27864
▁the	-3.386
▁.	-3.51108
▁	-3.70671
▁to	-4.02158
▁of	-4.03201
▁a	-4.0737
ed	-4.30055
d	-4.33679
.	-4.34643
▁and	-4.38811
▁in	-4.41864
t	-4.43072
ing	-4.44031
-	-4.44231
▁'	-4.77413
y	-4.82906
ly	-4.9875
▁for	-5.07939
▁tha	-5.08752
▁The	-5.14005
▁be	-5.15708
$	-5.16687
▁``	-5.22365
▁is	-5.22826
▁''	-5.25415
▁on	-5.34923
▁sai	-5.43782
▁it	-5.53428
▁%	-5.5671
▁with	-5.61659
▁by	-5.66191
from	-5.66955
▁million	-5.67583
▁Mr	-5.71293
▁at	-5.73481
▁was	-5.79906
es	-5.85075
▁are	-5.86502
▁year	-5.87161
▁an	-5.88997
'	-5.93043
▁has	-5.96793
▁its	-5.97384
▁n	-5.97913
e	-6.01969
▁will	-6.02776
▁have	-6.04972
▁as	-6.05505
▁say	-6.11385
▁he	-6.15951
▁or	-6.24601
▁market	-6.25105
▁company	-6.2536
▁-	-6.25671
en	-6.29108
RB	-6.32458
▁A	-6.35955
▁which	-6.36615
▁would	-6.37885
S	-6.38813
▁about	-6.44136
▁In	-6.44323
▁--	-6.46966
▁U	-6.50712
▁this	-6.52322
were	-6.52553
▁more	-6.53175
n	-6.53317
▁billion	-6.55503
▁up	-6.56081
▁who	-6.5766
▁But	-6.60324
ies	-6.61136
▁his	-6.62991
had	-6.63865
▁their	-6.6451
▁but	-6.65251
er	-6.65869
▁price	-6.66508
▁Co	-6.68684
▁do	-6.68889
▁one	-6.69247
▁than	-6.69959
▁other	-6.70054
R	-6.70488
▁new	-6.71066
L	-6.72526
▁share	-6.72741
▁some	-6.7325
▁not	-6.75191
▁I	-6.75906
le	-6.78914
▁stock	-6.80188
▁also	-6.80955
▁Corp	-6.84525
▁:	-6.87481
on	-6.88358
&	-6.88903
▁S	-6.89058
▁Inc	-6.90244
▁New	-6.90341
al	-6.92205
▁c	-6.93574
▁month	-6.94344
▁It	-6.95213
▁over	-6.9898
▁out	-6.99755
▁two	-7.00307
▁business	-7.00795
day	-7.03041
▁1	-7.03248
▁E	-7.04111
▁all	-7.04567
cause	-7.06618
ould	-7.07817
▁last	-7.09387
▁shares	-7.09589
▁rate	-7.15086
▁He	-7.15537
▁trading	-7.1592
▁M	-7.16034
▁when	-7.16186
▁after	-7.17573
▁sales	-7.1854
▁can	-7.21207
▁time	-7.21304
a	-7.21366
▁any	-7.21789
▁week	-7.22657
uch	-7.22727
▁York	-7.24003
▁president	-7.24027
▁into	-7.24881
▁first	-7.2586
▁quarter	-7.25979
▁issue	-7.27449
▁bond	-7.27622
▁interest	-7.27632
▁plan	-7.28206
▁most	-7.31522
▁no	-7.32725
▁government	-7.32947
able	-7.33469
▁man	-7.34025
▁may	-7.34082
▁we	-7.34724
▁sell	-7.35588
▁bank	-7.35821
▁compani	-7.3615
▁expect	-7.36379
in	-7.36899
▁if	-7.37251
▁down	-7.38042
▁group	-7.40162
▁investor	-7.40262
▁increase	-7.40368
▁like	-7.41521
▁cents	-7.41621
o	-7.44211
ion	-7.44634
se	-7.45137
▁buy	-7.45681
▁firm	-7.45875
▁own	-7.46309
▁3	-7.46493
▁executive	-7.46535
man	-7.47755
▁so	-7.4811
▁cost	-7.48375
▁official	-7.48432
▁end	-7.49237
m	-7.49787
▁there	-7.49922
▁unit	-7.50854
re	-7.52039
▁now	-7.52143
▁offer	-7.52996
▁part	-7.53022
▁analyst	-7.53124
▁three	-7.53524
▁rose	-7.53538
▁get	-7.53951
▁American	-7.54037
▁C	-7.54201
an	-7.54254
r	-7.55154
▁much	-7.55267
▁recent	-7.55413
▁un	-7.55524
▁people	-7.55624
▁product	-7.57102
▁profit	-7.57133
▁again	-7.58206
▁B	-7.58732
▁investment	-7.58763
▁them	-7.59521
▁under	-7.59668
▁even	-7.60204
▁program	-7.61571
▁We	-7.61667
▁loss	-7.61985
▁make	-7.62055
▁through	-7.62294
out	-7.62306
ce	-7.62506
▁third	-7.63995
▁10	-7.64113
yester	-7.65196
▁earnings	-7.65198
▁call	-7.66378
▁high	-7.67281
▁how	-7.67291
▁state	-7.67304
▁what	-7.68151
▁you	-7.68175
▁th	-7.68877
▁major	-7.68954
h	-7.68993
▁next	-7.69863
▁D	-7.70656
▁add	-7.70825
▁8	-7.71119
ment	-7.7158
ers	-7.72778
▁just	-7.733
▁earlier	-7.7353
▁late	-7.73559
▁chief	-7.74421
▁money	-7.74906
▁back	-7.75221
▁net	-7.75844
▁work	-7.76078
▁industry	-7.76272
▁And	-7.76287
▁30	-7.76949
▁off	-7.77393
▁real	-7.78343
ose	-7.78448
▁made	-7.78462
year	-7.78525
▁point	-7.78707
▁computer	-7.78962
▁change	-7.79882
▁before	-7.80461
ever	-7.80618
▁show	-7.81792
▁long	-7.81953
▁current	-7.81973
▁2	-7.82134
▁federal	-7.82161
▁take	-7.82192
▁report	-7.82293
▁includ	-7.82658
▁concern	-7.82746
▁N	-7.83066
▁financial	-7.83549
ve	-7.83791
▁operation	-7.83812
▁problem	-7.84106
▁whi	-7.84305
▁decline	-7.84895
▁want	-7.85104
▁well	-7.85359
▁still	-7.85527
▁tax	-7.85701
▁15	-7.87272
▁contract	-7.87802
▁For	-7.87995
▁help	-7.88101
did	-7.88808
twee	-7.88986
▁pay	-7.89036
▁F	-7.89269
▁Oct	-7.89451
▁continue	-7.89769
\/8	-7.90009
▁5	-7.91253
▁move	-7.9141
▁director	-7.91483
▁yield	-7.91506
▁loan	-7.92027
▁days	-7.9203
▁P	-7.92119
▁stocks	-7.92209
▁debt	-7.92226
▁since	-7.92971
▁big	-7.93453
▁bill	-7.93454
▁lower	-7.93462
,000	-7.93471
▁20	-7.93715
▁chairman	-7.93832
▁income	-7.93841
▁case	-7.95066
▁bid	-7.95458
xchange	-7.95507
▁close	-7.95742
▁system	-7.96114
▁Japanese	-7.96464
▁large	-7.96487
▁That	-7.96892
▁ago	-7.97106
ther	-7.97294
▁him	-7.97334
▁Bank	-7.97396
▁value	-7.97581
▁base	-7.98497
CB	-7.98566
▁estimate	-7.98836
▁San	-7.98869
other	-7.99434
▁should	-7.99781
▁fell	-8.00174
▁al	-8.0054
▁sale	-8.00602
▁higher	-8.02106
▁reported	-8.02429
▁service	-8.02449
or	-8.02705
▁securities	-8.02908
thing	-8.03032
▁five	-8.03145
▁Thi	-8.03256
▁right	-8.03668
▁need	-8.03735
▁past	-8.03747
▁her	-8.03834
▁maker	-8.03904
▁way	-8.03933
5	-8.04344
▁asset	-8.04588
▁trade	-8.04825
▁remain	-8.05271
▁O	-8.06142
▁7	-8.06489
▁she	-8.06568
▁House	-8.0674
▁charge	-8.06815
ity	-8.06972
▁public	-8.07209
▁Friday	-8.07483
▁total	-8.07651
▁gain	-8.08068
▁less	-8.08453
\/4	-8.08953
very	-8.09423
each	-8.09604
▁think	-8.1026
▁Japan	-8.10275
▁sold	-8.10374
▁exchange	-8.10493
▁50	-8.10857
son	-8.10949
▁1988	-8.11025
▁funds	-8.11097
▁If	-8.11355
▁use	-8.11392
▁capital	-8.1149
▁second	-8.11847
▁number	-8.12381
▁T	-8.1244
▁near	-8.12692
▁R	-8.12771
▁good	-8.13427
▁closed	-8.13528
▁foreign	-8.1364
▁both	-8.13767
A	-8.13927
quarter	-8.14617
▁Stock	-8.14927
▁vice	-8.15223
0	-8.15291
▁average	-8.1537
▁office	-8.15483
▁dur	-8.15504
▁include	-8.15609
▁trader	-8.15669
▁economic	-8.15783
▁growth	-8.15845
land	-8.16237
▁line	-8.16462
▁general	-8.17157
▁common	-8.1717
▁sever	-8.17206
▁go	-8.17391
▁where	-8.17627
▁revenue	-8.17951
▁start	-8.1869
▁look	-8.18841
▁world	-8.19091
▁our	-8.19361
▁National	-8.19905
▁cash	-8.19921
▁officer	-8.19967
▁return	-8.20473
▁plant	-8.20651
▁follow	-8.20972
▁fund	-8.2104
▁agreement	-8.21383
▁day	-8.21425
▁used	-8.2178
▁K	-8.22345
▁far	-8.22412
▁might	-8.22464
▁put	-8.23023
▁support	-8.23083
▁index	-8.23508
▁being	-8.23525
▁due	-8.23708
▁Soviet	-8.2371
▁four	-8.23915
▁John	-8.23917
▁home	-8.23949
▁few	-8.24083
▁cut	-8.242
▁board	-8.24236
▁British	-8.24236
▁level	-8.24348
ation	-8.2458
▁Man	-8.24844
▁six	-8.25084
▁1989	-8.25255
▁stake	-8.26052
▁Some	-8.2691
▁us	-8.27295
▁small	-8.27367
▁see	-8.27463
▁California	-8.27494
us	-8.27613
▁least	-8.27894
▁oil	-8.27924
▁yen	-8.27941
▁every	-8.28156
▁turn	-8.28329
▁On	-8.28359
▁Congress	-8.28409
▁early	-8.28474
▁law	-8.28601
▁At	-8.28777
▁operat	-8.2908
▁result	-8.29132
▁4	-8.29222
▁provide	-8.2924
4	-8.30085
▁power	-8.30095
▁former	-8.30411
▁German	-8.30582
▁offering	-8.3064
▁purchase	-8.30641
▁believe	-8.3069
ry	-8.30722
▁area	-8.30861
▁according	-8.31424
▁note	-8.31513
▁Treasury	-8.31836
▁H	-8.31851
▁damage	-8.3188
▁force	-8.32025
▁previous	-8.32472
▁account	-8.32503
▁too	-8.32597
▁court	-8.32631
▁Nov	-8.32716
▁dollar	-8.33042
▁agree	-8.33254
▁West	-8.3332
▁b	-8.33373
▁going	-8.33651
▁consider	-8.34307
▁among	-8.35023
▁1990	-8.35721
▁same	-8.36045
▁There	-8.36081
▁half	-8.36126
▁credit	-8.36277
▁set	-8.36331
▁effort	-8.36375
▁period	-8.36382
▁deal	-8.36402
▁manager	-8.36615
self	-8.36919
▁already	-8.37159
ought	-8.37541
term	-8.37555
▁11	-8.37694
▁try	-8.3782
▁give	-8.3789
▁insurance	-8.38415
bas	-8.38674
▁certain	-8.38724
▁post	-8.38915
▁econom	-8.39046
▁12	-8.3913
▁talk	-8.39406
▁September	-8.39435
1	-8.39522
▁One	-8.40375
▁then	-8.40419
▁Bus	-8.40485
▁management	-8.40508
▁Federal	-8.40787
2	-8.41121
▁strong	-8.41144
▁little	-8.41478
▁position	-8.41524
▁spend	-8.41594
▁control	-8.41687
l	-8.41803
▁short	-8.42532
▁International	-8.42884
▁L	-8.43052
▁amount	-8.43279
▁open	-8.4348
▁25	-8.43515
one	-8.43632
▁fall	-8.43708
▁receive	-8.43776
▁project	-8.43916
▁UAL	-8.43994
▁production	-8.44578
▁100	-8.44902
▁junk	-8.4539
▁Monday	-8.45401
▁spokes	-8.45426
though	-8.45506
▁raise	-8.45522
▁1\/2	-8.45608
▁annual	-8.45811
gency	-8.45898
▁So	-8.45971
▁Street	-8.46488
▁1987	-8.46514
▁demand	-8.46521
▁employee	-8.46524
▁Wall	-8.46527
▁13	-8.46866
▁wo	-8.46979
▁know	-8.47079
▁seem	-8.47617
▁customer	-8.47624
until	-8.47689
▁order	-8.47956
▁political	-8.47998
▁First	-8.48009
▁allow	-8.48018
▁non	-8.48027
▁takeover	-8.48068
▁Al	-8.48648
▁To	-8.4871
▁Securities	-8.4909
▁earthquake	-8.49096
▁building	-8.4913
9	-8.4921
▁head	-8.49229
▁thing	-8.49301
▁old	-8.49365
▁ask	-8.49591
▁hard	-8.49919
▁whe	-8.50032
▁comment	-8.50242
▁proposal	-8.50269
3	-8.5038
▁record	-8.50531
▁e	-8.50577
▁buying	-8.50581
▁President	-8.50638
▁around	-8.50645
▁meeting	-8.50791
▁G	-8.50838
▁risk	-8.50913
▁nation	-8.50952
▁come	-8.50963
th	-8.51327
▁transaction	-8.51377
▁policy	-8.51428
▁consumer	-8.52545
▁shareholder	-8.5255
▁Group	-8.52656
▁6	-8.52839
▁corporate	-8.53322
▁August	-8.53337
▁become	-8.53428
held	-8.53433
i	-8.53461
▁Board	-8.53723
▁As	-8.53835
▁country	-8.53851
▁40	-8.53943
▁No	-8.53987
▁must	-8.54112
▁W	-8.54342
▁per	-8.54495
▁Francisco	-8.54508
▁further	-8.54512
the	-8.54617
▁acquisition	-8.55098
▁futures	-8.5514
▁results	-8.55165
▁mean	-8.55382
▁face	-8.55566
▁Ltd	-8.56131
▁health	-8.56198
▁low	-8.56476
▁seek	-8.56706
▁9	-8.57287
▁figure	-8.57298
▁decision	-8.57331
▁rise	-8.57455
ok	-8.57539
▁question	-8.57757
▁term	-8.57875
less	-8.58154
8	-8.58187
ia	-8.58474
▁run	-8.58627
▁grow	-8.59
▁holding	-8.59005
▁When	-8.59023
▁mak	-8.59217
▁largest	-8.59511
▁Robert	-8.60282
▁top	-8.60441
▁drop	-8.60584
▁though	-8.60669
▁rule	-8.60691
▁Dow	-8.60756
▁An	-8.60854
▁here	-8.60867
▁Jon	-8.61024
w	-8.61073
▁keep	-8.61637
▁place	-8.62119
▁sign	-8.62292
▁reflect	-8.62363
▁possibl	-8.62795
ll	-8.62927
▁senior	-8.63221
▁Department	-8.63227
▁nine	-8.63291
▁my	-8.6331
ough	-8.63337
▁life	-8.64008
▁19	-8.64015
▁clear	-8.64174
▁London	-8.64537
▁pre	-8.65017
ld	-8.65305
▁research	-8.66093
▁worker	-8.66137
▁private	-8.66311
ic	-8.66469
▁suit	-8.66775
▁Dec	-8.66785
▁paid	-8.67403
▁acquire	-8.67528
▁Chicago	-8.67662
▁paper	-8.67715
6	-8.67999
▁How	-8.68123
T	-8.68525
▁South	-8.68677
▁Ju	-8.68722
▁re	-8.68895
▁national	-8.68916
▁General	-8.69004
ance	-8.69222
ither	-8.69983
▁hold	-8.70121
▁Senate	-8.70186
up	-8.70415
▁lot	-8.70447
▁East	-8.70459
▁volume	-8.70521
▁reach	-8.70595
▁fiscal	-8.70888
▁example	-8.70888
▁Be	-8.71006
▁Texas	-8.71358
gan	-8.71408
▁de	-8.71561
▁Air	-8.71644
▁action	-8.71676
at	-8.71776
▁J	-8.71915
▁vote	-8.7209
▁found	-8.72194
most	-8.72228
▁dropp	-8.72646
▁With	-8.72788
▁payment	-8.73022
time	-8.7307
▁individual	-8.73258
▁composite	-8.73259
▁division	-8.73261
▁slow	-8.735
▁18	-8.7352
▁car	-8.73584
▁addition	-8.73638
▁benefit	-8.73842
▁Whi	-8.7387
ive	-8.74065
▁appear	-8.74205
old	-8.74268
▁ca	-8.74485
▁house	-8.74598
▁play	-8.74671
▁North	-8.74785
▁full	-8.75373
▁Ford	-8.75404
▁European	-8.75757
▁TV	-8.75914
ley	-8.76064
▁store	-8.76078
P	-8.76146
▁complete	-8.76187
▁Big	-8.76678
▁future	-8.76891
later	-8.76943
▁fee	-8.77365
▁p	-8.77409
▁estate	-8.77541
▁better	-8.77677
▁measure	-8.77766
▁reason	-8.77806
▁subsidiar	-8.77817
to	-8.77948
▁31	-8.78004
▁effect	-8.78189
▁direct	-8.78557
▁500	-8.78786
el	-8.78951
ness	-8.79066
▁Motor	-8.79186
▁file	-8.79364
▁16	-8.79414
▁require	-8.79428
▁Washington	-8.79704
▁mortgage	-8.79716
▁administration	-8.79874
▁announce	-8.79957
▁job	-8.80221
▁17	-8.806
▁America	-8.80877
▁mark	-8.80896
▁compare	-8.81145
▁Warner	-8.81247
▁named	-8.81418
▁Las	-8.8145
▁hour	-8.81464
▁orders	-8.81509
▁members	-8.8158
▁auto	-8.81843
\/	-8.81881
▁got	-8.81913
▁particular	-8.82287
▁Capital	-8.823
▁budget	-8.82376
▁lawyer	-8.82461
▁personal	-8.82543
▁Europe	-8.82779
▁produce	-8.82838
▁came	-8.83085
▁sharp	-8.83136
▁bigge	-8.83259
f	-8.83466
▁drug	-8.83545
▁city	-8.8384
▁potential	-8.83875
▁machine	-8.83883
▁best	-8.83927
▁view	-8.83982
▁activit	-8.84011
▁statement	-8.84018
▁di	-8.84089
▁boost	-8.84443
▁Jaguar	-8.84456
te	-8.84629
▁process	-8.84715
▁magazine	-8.84967
▁client	-8.84981
expected	-8.85066
▁...	-8.85254
▁commercial	-8.85358
▁lead	-8.85595
▁often	-8.85708
▁your	-8.85735
ember	-8.85983
um	-8.86173
▁hand	-8.86324
▁parent	-8.8653
▁outstanding	-8.86587
▁actual	-8.86661
▁inflation	-8.86686
▁import	-8.86763
▁producer	-8.86991
est	-8.87
▁yet	-8.8713
▁once	-8.87142
▁joint	-8.87357
▁fact	-8.87507
▁Tuesday	-8.87679
▁local	-8.87679
ir	-8.87929
stead	-8.88159
▁deliver	-8.88289
▁You	-8.88863
▁judge	-8.88877
▁14	-8.88906
▁development	-8.89
▁hope	-8.89059
ary	-8.89108
▁financing	-8.89355
▁network	-8.89392
▁important	-8.8941
▁Union	-8.8941
ily	-8.89492
▁great	-8.89858
ta	-8.8989
▁What	-8.89992
▁200	-8.90088
▁plann	-8.90258
▁special	-8.90459
▁gas	-8.90475
▁design	-8.90609
▁find	-8.91019
▁black	-8.91058
▁portfolio	-8.91068
▁Jam	-8.91074
ally	-8.91102
▁IBM	-8.91641
▁never	-8.91841
co	-8.91886
▁soon	-8.92088
▁strateg	-8.92181
▁anti	-8.9222
▁away	-8.92235
▁single	-8.92264
▁holder	-8.92346
7	-8.92447
▁center	-8.92498
ard	-8.92714
▁technology	-8.92805
▁test	-8.93094
ober	-8.93236
▁information	-8.93607
▁union	-8.9378
whi	-8.93867
body	-8.93869
▁attorney	-8.93967
▁regulator	-8.93967
▁broker	-8.9398
▁June	-8.94012
▁additional	-8.94101
▁claims	-8.94769
▁main	-8.95118
▁provision	-8.95155
k	-8.95549
▁Sept	-8.95744
▁en	-8.95745
▁reserve	-8.95752
▁international	-8.95752
▁Court	-8.95754
▁airline	-8.95758
▁deficit	-8.95776
▁Po	-8.958
▁industrial	-8.95838
▁Association	-8.96355
▁Los	-8.96419
▁free	-8.96881
▁equip	-8.96914
▁After	-8.96941
share	-8.96962
▁slight	-8.96972
▁finance	-8.97045
▁wide	-8.97073
▁60	-8.97313
▁Fed	-8.97493
▁lost	-8.97576
▁Tokyo	-8.97585
▁gold	-8.97614
▁legal	-8.97802
ful	-8.97898
▁quick	-8.98213
▁data	-8.98241
▁via	-8.98265
▁retail	-8.98296
▁export	-8.98311
ey	-8.98388
▁equity	-8.985
▁form	-8.98774
ton	-8.98804
▁buyer	-8.98808
▁left	-8.98815
▁David	-8.98872
▁White	-8.98877
c	-8.9894
▁fourth	-8.98964
▁availab	-8.98986
▁Commission	-8.99423
▁jump	-8.99431
75	-8.99788
▁May	-8.99932
▁Revenue	-9.00049
▁fail	-9.00093
▁significant	-9.0012
▁reduce	-9.00155
▁committee	-9.00175
▁difficult	-9.00676
▁similar	-9.00676
▁attempt	-9.00677
▁Boston	-9.00677
▁above	-9.00715
▁me	-9.01042
▁dollars	-9.01303
▁defense	-9.01314
▁Now	-9.01321
▁team	-9.01346
ways	-9.01431
▁create	-9.01593
▁suggest	-9.01888
▁list	-9.01939
▁Calif	-9.01946
▁bad	-9.01957
▁begin	-9.02029
▁compar	-9.02066
▁options	-9.02304
▁department	-9.02598
▁China	-9.02613
16	-9.03106
▁disclose	-9.03281
▁Market	-9.03289
▁led	-9.03475
rate	-9.03786
▁restructuring	-9.03882
▁domestic	-9.03883
month	-9.04044
▁family	-9.04088
▁standard	-9.04307
▁improve	-9.04312
▁pass	-9.04321
▁March	-9.04549
▁Angeles	-9.04588
▁name	-9.04744
▁gains	-9.04777
▁usual	-9.04856
ility	-9.05074
▁hit	-9.05087
▁increasing	-9.05203
▁Western	-9.05211
▁continu	-9.05842
▁economist	-9.05875
▁probabl	-9.05935
▁1986	-9.06528
▁pilot	-9.06548
▁22	-9.06564
▁below	-9.06564
▁construction	-9.06573
▁Gold	-9.06614
▁makes	-9.06626
.50	-9.06748
▁brand	-9.06762
ous	-9.06881
▁venture	-9.07069
▁System	-9.07193
▁cause	-9.07203
▁approval	-9.07215
▁agenc	-9.07481
head	-9.0757
tax	-9.07627
▁approve	-9.07683
▁final	-9.0787
C	-9.08035
▁build	-9.08037
▁abortion	-9.08103
z	-9.08218
▁dividend	-9.08274
▁By	-9.08351
▁More	-9.08358
▁Chairman	-9.08549
▁advertising	-9.08549
▁schedule	-9.09192
▁child	-9.09366
over	-9.09587
▁La	-9.09629
▁ra	-9.09731
▁26	-9.09792
▁seven	-9.09911
▁accept	-9.09967
▁earn	-9.10104
▁Canada	-9.10144
▁news	-9.10157
▁Sales	-9.1016
▁Pacific	-9.10272
▁plunge	-9.10463
▁Under	-9.10606
▁Canadian	-9.10618
▁World	-9.10646
▁known	-9.10822
▁food	-9.10864
▁facilit	-9.10873
wide	-9.10958
▁predict	-9.11481
▁Ne	-9.11526
▁Dr	-9.11986
▁step	-9.12088
▁limit	-9.12122
▁Bay	-9.1219
▁pressure	-9.12284
ach	-9.12369
▁condition	-9.12413
▁cit	-9.12659
▁City	-9.12912
▁along	-9.13032
▁act	-9.13081
▁range	-9.13302
▁succeed	-9.13445
▁initial	-9.13446
▁steel	-9.1345
taking	-9.13454
▁affect	-9.13491
▁bring	-9.13804
by	-9.13808
g	-9.1406
▁Eastern	-9.14178
▁volatil	-9.14193
▁William	-9.14228
▁school	-9.14302
▁Seri	-9.14436
taken	-9.14622
▁labor	-9.14892
▁Other	-9.1499
▁24	-9.15185
▁legislati	-9.15187
▁working	-9.15356
▁auction	-9.15619
▁discount	-9.15641
▁Most	-9.15701
▁spokesm	-9.15854
ham	-9.16025
▁toward	-9.16036
K	-9.16066
▁develop	-9.16109
▁involve	-9.16119
▁exist	-9.16325
▁countr	-9.16343
▁Bo	-9.16521
▁Even	-9.16642
▁leader	-9.16646
special	-9.16893
▁coming	-9.16958
ting	-9.17045
▁percentage	-9.17097
▁heavy	-9.1717
▁GM	-9.17178
▁performance	-9.17204
▁Brita	-9.17271
▁De	-9.17579
▁pro	-9.17632
da	-9.1771
▁Hong	-9.17846
▁institution	-9.17852
▁push	-9.17852
▁property	-9.18337
▁double	-9.18473
▁21	-9.18483
earlier	-9.18493
▁military	-9.18595
▁role	-9.18625
ren	-9.19185
▁air	-9.19289
▁different	-9.19325
▁University	-9.19367
▁relat	-9.19439
▁banking	-9.19472
▁hav	-9.19624
▁State	-9.19671
▁80	-9.19692
▁invest	-9.1996
▁campaign	-9.20114
▁thrift	-9.20116
▁Republican	-9.20152
▁cover	-9.20169
▁i	-9.20303
▁despi	-9.20377
▁study	-9.20884
▁subject	-9.20884
▁substantial	-9.20916
▁Del	-9.20957
▁factor	-9.20974
▁kind	-9.21024
▁basi	-9.21275
▁Sen	-9.21341
▁Michael	-9.2166
▁brokerage	-9.21697
▁drive	-9.21798
▁All	-9.21953
is	-9.22183
▁filing	-9.22232
▁Mean	-9.22445
▁Kong	-9.22447
▁chain	-9.22451
▁settlement	-9.22472
went	-9.22497
▁propose	-9.22596
▁US	-9.22763
age	-9.22882
▁represent	-9.22919
▁28	-9.23066
▁Airline	-9.23236
▁key	-9.2339
ist	-9.23647
▁Ap	-9.2365
▁trouble	-9.2381
▁aid	-9.23833
▁practice	-9.23867
▁claim	-9.23881
▁region	-9.24033
▁Institute	-9.24055
▁effective	-9.24078
▁recover	-9.24097
▁cars	-9.24102
▁block	-9.24133
▁television	-9.24137
▁mid	-9.24333
▁meet	-9.24444
▁target	-9.24822
▁maintain	-9.24822
▁Investor	-9.24825
▁Financial	-9.24832
▁Rep	-9.24846
▁staff	-9.2487
▁focus	-9.24872
▁course	-9.24933
till	-9.25314
▁Committee	-9.25628
▁`	-9.25628
▁Paul	-9.2563
▁huge	-9.25633
ville	-9.25635
▁guarantee	-9.25639
▁matter	-9.25659
▁letter	-9.25674
▁French	-9.25679
▁supply	-9.25679
.25	-9.25766
J	-9.25892
▁game	-9.25984
ril	-9.26018
▁currency	-9.26074
ves	-9.26076
▁release	-9.26367
▁Richard	-9.26405
▁Business	-9.26444
▁margin	-9.26653
▁Merrill	-9.2726
▁break	-9.27401
▁leaders	-9.2746
▁creditor	-9.27556
▁join	-9.27772
▁ever	-9.28018
32	-9.28026
▁natural	-9.28087
▁expense	-9.28163
▁light	-9.28219
▁active	-9.28368
▁room	-9.28396
off	-9.28479
▁indicate	-9.28876
▁war	-9.28896
▁hurt	-9.2892
mpact	-9.28979
▁His	-9.29114
▁longer	-9.29477
▁outside	-9.29706
B	-9.29712
▁delay	-9.29817
▁trust	-9.29833
▁water	-9.29844
▁75	-9.30201
▁Trust	-9.30248
ty	-9.30581
▁Lynch	-9.30608
▁immediate	-9.30608
▁situation	-9.30609
▁simpl	-9.30667
▁specific	-9.30695
ism	-9.30742
▁wait	-9.30749
▁pound	-9.30877
▁seen	-9.31063
▁She	-9.31357
▁thought	-9.31485
▁independent	-9.31657
ite	-9.31894
▁CD	-9.31993
▁press	-9.32056
▁white	-9.32248
▁eight	-9.32278
▁Drexel	-9.32325
▁lack	-9.32329
▁George	-9.32352
▁consultant	-9.3236
▁franc	-9.32402
done	-9.32408
▁ga	-9.32416
▁ha	-9.32433
given	-9.32517
▁23	-9.32543
▁involv	-9.32608
▁young	-9.32643
▁35	-9.32645
G	-9.32756
▁27	-9.32904
▁Frank	-9.33201
Y	-9.33202
▁Democrat	-9.33226
▁manufacturing	-9.33294
▁engineer	-9.33364
▁reduced	-9.33701
cy	-9.33953
▁Fund	-9.34068
▁Industrie	-9.34071
▁Reserve	-9.34071
▁recession	-9.34072
▁newspaper	-9.34072
▁strike	-9.34075
▁Conn	-9.34192
ble	-9.34362
▁Nav	-9.34492
▁Judge	-9.34966
msel	-9.35
▁forecast	-9.35013
▁quake	-9.35036
▁announcement	-9.35057
verage	-9.35539
ler	-9.35541
▁propos	-9.35575
mong	-9.35714
haps	-9.3585
▁death	-9.35853
▁Analyst	-9.35867
▁carrier	-9.35908
▁stop	-9.35929
▁separate	-9.36039
▁announc	-9.36223
▁leading	-9.36373
▁partner	-9.36391
▁competiti	-9.36571
▁150	-9.36706
▁idea	-9.36725
▁Wednesday	-9.3675
▁survey	-9.3679
▁Sal	-9.36815
▁apparent	-9.36865
▁event	-9.37058
market	-9.37106
▁commission	-9.3732
▁manag	-9.37459
▁fear	-9.37498
▁person	-9.37589
▁Columb	-9.37659
▁interview	-9.3766
▁else	-9.37662
▁Noriega	-9.37694
▁intend	-9.3772
▁source	-9.37725
▁space	-9.37777
ch	-9.37835
▁70	-9.37845
▁word	-9.3786
▁safe	-9.37919
▁sector	-9.3818
▁wh	-9.3829
▁truck	-9.38353
▁material	-9.38392
▁29	-9.38398
▁par	-9.38509
▁fight	-9.38527
▁side	-9.38529
▁avoid	-9.38577
▁Thursday	-9.38577
▁Health	-9.38578
▁human	-9.38578
▁sent	-9.3861
▁Data	-9.38628
▁pick	-9.38708
▁crash	-9.38829
▁St	-9.38945
LC	-9.39118
▁leave	-9.39385
▁surge	-9.39416
▁conference	-9.39504
▁beginning	-9.39506
▁stay	-9.39532
woman	-9.39836
where	-9.39934
▁45	-9.40042
▁feel	-9.40243
▁merger	-9.40265
▁premium	-9.40473
▁CBS	-9.40475
▁majority	-9.4072
and	-9.4073
▁197	-9.40868
▁worth	-9.40973
▁package	-9.413
▁Per	-9.41328
▁article	-9.41404
▁vehicle	-9.41465
▁session	-9.41489
ern	-9.41521
0,000	-9.4153
▁Journal	-9.41552
▁station	-9.41594
▁election	-9.41636
▁favor	-9.417
▁Dig	-9.4176
index	-9.41777
▁smaller	-9.4178
▁rais	-9.4181
men	-9.42003
▁Service	-9.42292
▁climb	-9.42333
▁serious	-9.42344
▁limited	-9.42466
▁establish	-9.42568
▁night	-9.42791
▁launch	-9.42838
▁collapse	-9.42958
ten	-9.43194
▁rest	-9.43215
▁Am	-9.4329
▁request	-9.43295
▁Shear	-9.43312
▁sure	-9.43352
▁closing	-9.43354
▁floor	-9.43429
care	-9.43574
ized	-9.43645
▁tell	-9.43723
ital	-9.43794
▁dealers	-9.44134
own	-9.4419
▁Unit	-9.44208
▁giant	-9.44265
relate	-9.44266
▁Guber	-9.44267
▁declin	-9.44267
▁Industrial	-9.44275
▁France	-9.44276
▁bankruptcy	-9.44346
▁telephone	-9.44361
▁carry	-9.44367
▁dail	-9.44447
▁wage	-9.44555
▁argue	-9.44585
ish	-9.44709
▁model	-9.44725
came	-9.44796
▁media	-9.44917
▁Ma	-9.44926
▁field	-9.44984
▁weak	-9.45115
saw	-9.45145
▁relative	-9.45266
together	-9.4532
▁summer	-9.45337
▁fixed	-9.45416
▁goods	-9.45593
▁adjust	-9.45683
▁Peter	-9.45734
▁men	-9.45795
▁Ye	-9.45984
▁resign	-9.46194
▁Smith	-9.46209
▁expert	-9.46237
▁Brother	-9.46241
▁protection	-9.4629
idder	-9.46609
▁histor	-9.46781
way	-9.46844
▁Wa	-9.46918
.75	-9.47038
▁congressional	-9.47236
▁chance	-9.47236
be	-9.47248
▁approach	-9.4725
▁According	-9.47314
ur	-9.47368
ership	-9.47396
▁traded	-9.47689
▁Hug	-9.48112
gains	-9.48241
▁age	-9.48245
▁disaster	-9.48254
▁preferred	-9.48295
seas	-9.48303
▁1992	-9.48306
▁watch	-9.48311
▁promise	-9.48435
u	-9.48506
▁30-	-9.48722
call	-9.48724
▁let	-9.48887
ince	-9.49207
▁date	-9.49278
▁response	-9.49281
▁banker	-9.49379
▁member	-9.49417
▁happen	-9.49456
▁44	-9.49462
▁aim	-9.49552
▁2.5	-9.49569
▁con	-9.49597
▁seri	-9.49612
▁present	-9.49694
▁flat	-9.49759
▁size	-9.49765
▁199	-9.50021
side	-9.50038
▁tough	-9.50051
▁chip	-9.50152
▁Peters	-9.50226
▁People	-9.50297
▁prevent	-9.50297
kin	-9.50358
TC	-9.5036
▁convertible	-9.50405
▁normal	-9.50583
▁cancer	-9.50649
▁write	-9.50739
▁won	-9.50804
▁trial	-9.50841
▁states	-9.50948
▁expand	-9.51189
kins	-9.51258
▁associate	-9.51292
▁whole	-9.51339
▁software	-9.51352
▁adviser	-9.51514
x	-9.51546
▁reform	-9.52029
▁serve	-9.5218
▁reject	-9.52334
▁entire	-9.52392
▁Home	-9.52417
▁offset	-9.52421
▁fair	-9.52427
hat	-9.52656
wood	-9.53092
▁deposit	-9.53145
▁1,000	-9.53206
▁protect	-9.53347
▁competitor	-9.53455
▁behind	-9.53457
▁moment	-9.53462
▁women	-9.53479
▁manufacturer	-9.53497
▁original	-9.53507
▁opportunit	-9.53519
▁elect	-9.53716
▁Mass	-9.53867
tex	-9.54107
ial	-9.54139
me	-9.5421
ford	-9.54267
▁Time	-9.5427
▁win	-9.54412
▁corporation	-9.54531
▁review	-9.54533
▁version	-9.54534
ter	-9.54548
point	-9.54549
▁90	-9.54602
▁minimum	-9.54627
▁1980	-9.54753
▁1.5	-9.54763
▁opposit	-9.54849
▁leveraged	-9.54913
oody	-9.55202
▁Bond	-9.55393
▁evidence	-9.55618
▁veto	-9.5562
▁unchang	-9.5562
▁1985	-9.55634
▁securit	-9.5572
▁insist	-9.55748
IRS	-9.5576
▁Stan	-9.56011
▁Communication	-9.56131
▁decade	-9.56359
▁contend	-9.56429
▁necessar	-9.56717
▁confirm	-9.56717
▁SEC	-9.56729
▁image	-9.56734
▁settle	-9.56773
▁Democratic	-9.56781
▁Holding	-9.56793
rising	-9.56804
▁sense	-9.56929
ier	-9.56995
▁player	-9.57045
▁minute	-9.57123
▁operate	-9.57236
b	-9.57543
ng	-9.57717
▁discuss	-9.5777
▁1.3	-9.57798
▁Insurance	-9.57828
▁Computer	-9.57828
▁difference	-9.57899
▁Jr	-9.57956
▁morning	-9.58012
▁enter	-9.58047
▁authorit	-9.5818
▁w	-9.58192
▁care	-9.58285
ible	-9.58401
▁land	-9.58539
▁300	-9.58643
well	-9.58873
▁Investment	-9.58953
▁modest	-9.58956
▁temporar	-9.58959
▁introduce	-9.59011
▁explain	-9.5908
▁33	-9.59152
▁battle	-9.59212
▁Not	-9.5952
▁runn	-9.59633
▁instance	-9.59789
▁count	-9.59959
▁Unite	-9.60035
▁organization	-9.60095
▁Index	-9.60095
▁arbitrage	-9.60122
▁Mac	-9.60205
▁attract	-9.60225
▁Gorb	-9.60339
▁built	-9.60365
▁experience	-9.60552
ar	-9.60672
▁flow	-9.60709
ward	-9.60782
chev	-9.61005
▁hearing	-9.61092
▁party	-9.61213
▁suffer	-9.61237
▁January	-9.6124
omon	-9.61319
▁decided	-9.61374
▁taxe	-9.61405
▁fast	-9.61419
▁spen	-9.61514
▁capacity	-9.61559
▁Sony	-9.61566
▁Also	-9.61838
▁extend	-9.61867
▁structure	-9.62022
▁abilit	-9.62141
▁phone	-9.62208
▁Re	-9.62235
anagement	-9.62371
▁narrow	-9.624
▁typical	-9.624
▁conservative	-9.62417
▁Reagan	-9.62447
▁couple	-9.62487
▁headquarter	-9.62491
▁across	-9.62494
▁Eng	-9.62632
▁Justi	-9.62683
▁fill	-9.63494
▁various	-9.63576
▁dispute	-9.63577
▁ease	-9.63588
▁flight	-9.63683
▁improvement	-9.63733
▁insurer	-9.63789
▁book	-9.638
M	-9.63832
▁1.2	-9.63834
ex	-9.64445
▁fully	-9.64557
counter	-9.64653
▁Electric	-9.64767
▁equal	-9.6478
upreme	-9.64796
▁familiar	-9.64817
▁1991	-9.64845
▁emergency	-9.64848
▁stand	-9.64919
▁district	-9.64926
tan	-9.65113
▁Part	-9.65127
▁seat	-9.65191
▁goal	-9.65198
ending	-9.65352
▁fire	-9.65464
▁live	-9.65621
greed	-9.65678
▁reduction	-9.65698
xpress	-9.65761
mark	-9.65842
▁success	-9.65875
▁broad	-9.6592
▁victim	-9.65972
▁ruling	-9.65972
▁Lehman	-9.65972
▁alternative	-9.65972
▁spring	-9.65972
▁utilit	-9.65976
▁partnership	-9.6598
▁education	-9.66043
▁track	-9.66143
▁Do	-9.66156
▁link	-9.66177
▁lend	-9.66466
▁quote	-9.66885
▁quality	-9.6698
▁spread	-9.67016
▁Count	-9.67105
▁obtain	-9.67191
▁rally	-9.67211
▁Baker	-9.67214
▁negotiation	-9.67241
▁Price	-9.67259
▁crime	-9.67521
H	-9.67827
ell	-9.6783
base	-9.67845
▁tie	-9.67962
▁Well	-9.68246
▁Australia	-9.68297
▁poor	-9.683
▁pension	-9.68429
▁failure	-9.6843
▁commitment	-9.6843
▁Nissan	-9.68437
▁shift	-9.68443
▁investigation	-9.68462
▁proceed	-9.6848
put	-9.68531
▁resident	-9.68537
▁advanced	-9.68539
rs	-9.68581
▁environmental	-9.68626
▁1.6	-9.68768
ago	-9.68806
▁Dur	-9.68946
▁produc	-9.69252
▁Tele	-9.6935
▁miles	-9.69366
▁Sun	-9.69489
▁civil	-9.69669
▁Associate	-9.69676
▁segment	-9.69676
▁adopt	-9.69676
yond	-9.69689
utton	-9.69708
▁subordinate	-9.69745
▁energy	-9.69811
▁conduct	-9.69861
▁greater	-9.69961
▁combin	-9.69963
▁rival	-9.6998
▁55	-9.7006
▁electronic	-9.70246
it	-9.70477
▁maturit	-9.70634
▁easi	-9.7068
▁item	-9.70816
▁visit	-9.70819
AL	-9.70912
▁debenture	-9.70943
▁retain	-9.70944
▁Two	-9.70945
▁film	-9.71044
▁soft	-9.71416
▁Din	-9.71455
▁Desp	-9.71519
▁option	-9.71602
▁chemical	-9.71815
▁65	-9.72039
▁savings	-9.72082
▁Brown	-9.72224
▁respond	-9.72227
▁unlike	-9.72252
▁cable	-9.72275
ian	-9.72303
▁fuel	-9.72308
▁complain	-9.72334
sterda	-9.72367
▁Or	-9.72498
▁Trad	-9.72516
▁doubt	-9.72531
▁read	-9.72588
▁appeal	-9.72933
dministration	-9.73119
▁expectation	-9.73147
▁propert	-9.73254
back	-9.73514
▁medical	-9.73522
▁Secretary	-9.73523
▁learn	-9.73524
▁thousand	-9.73541
▁sort	-9.73554
▁400	-9.73616
▁comes	-9.73654
▁match	-9.73672
backed	-9.73693
▁season	-9.73819
▁controll	-9.73841
▁co	-9.73913
▁1.1	-9.7418
berg	-9.7429
▁woman	-9.74565
▁acquir	-9.74572
▁lose	-9.74711
▁pull	-9.74788
▁Georgia	-9.74839
▁device	-9.74847
▁challenge	-9.74884
▁warrant	-9.7509
ling	-9.75282
▁train	-9.75325
▁Gen	-9.75517
▁mail	-9.75606
▁piece	-9.75702
▁researcher	-9.75738
▁42	-9.75932
▁manage	-9.75933
▁Pentagon	-9.76171
▁Research	-9.76171
▁Development	-9.76173
▁polici	-9.76175
▁agent	-9.76188
tention	-9.76212
▁USA	-9.76223
▁Services	-9.76228
▁37	-9.76253
▁panel	-9.7626
▁traditional	-9.76313
▁moving	-9.76361
▁underwriter	-9.76413
▁Yet	-9.76421
▁metal	-9.76527
▁alleged	-9.76664
▁Pa	-9.76829
ship	-9.771
▁trend	-9.77105
▁met	-9.77142
▁document	-9.77338
ie	-9.77395
▁popular	-9.77457
▁housing	-9.77523
▁Chemical	-9.77523
▁mutual	-9.77523
▁negative	-9.77532
▁Mexico	-9.77542
▁successful	-9.77556
▁check	-9.77609
▁tender	-9.77745
▁Flori	-9.77788
ors	-9.77879
product	-9.77999
▁type	-9.78129
▁Fe	-9.78415
▁Arm	-9.78615
▁ground	-9.78857
ra	-9.7886
▁heavi	-9.78883
▁attack	-9.78894
▁rapid	-9.78895
▁Feb	-9.78903
▁prosecutor	-9.78906
▁Swiss	-9.78953
▁advance	-9.78959
▁liabilit	-9.78982
▁regard	-9.7905
▁eye	-9.79064
▁soar	-9.79065
▁McCa	-9.79088
▁Nor	-9.79147
D	-9.79177
▁operator	-9.79237
ne	-9.79294
▁balance	-9.7931
cent	-9.79551
▁art	-9.796
▁f	-9.79655
▁retailer	-9.80153
▁heart	-9.80243
▁Lloyd	-9.80281
▁encourage	-9.80281
▁relationship	-9.80283
▁lawsuit	-9.80283
▁Security	-9.80291
▁War	-9.80295
▁discover	-9.80303
▁restriction	-9.80312
▁Red	-9.80338
▁split	-9.80371
▁Trade	-9.80428
▁friend	-9.80601
▁jury	-9.80733
p	-9.80738
▁Mar	-9.80877
▁Green	-9.80947
▁creat	-9.81078
▁owner	-9.81156
▁threat	-9.81559
▁Nasdaq	-9.8169
▁aggressive	-9.8169
▁regulation	-9.8169
▁Thomas	-9.8169
▁unusual	-9.81696
▁Morris	-9.81701
▁hotel	-9.81702
▁rough	-9.81712
▁transportation	-9.81713
▁criminal	-9.81751
▁requirement	-9.81815
▁aircraft	-9.81847
▁secretary	-9.81895
▁speed	-9.81896
▁farmer	-9.81992
field	-9.8202
▁43	-9.82073
third	-9.82083
▁negotiat	-9.82198
▁story	-9.82287
▁Stein	-9.82289
estate	-9.82294
▁38	-9.82304
▁51	-9.8238
▁travel	-9.82429
▁mind	-9.82602
▁Act	-9.82705
▁Car	-9.829
▁1.4	-9.82984
▁Office	-9.83044
▁regular	-9.83118
▁Hurricane	-9.83121
▁candidate	-9.83122
▁revise	-9.83143
▁specialist	-9.83144
aught	-9.8316
▁monitor	-9.83174
▁carrie	-9.83216
▁access	-9.83267
▁highest	-9.83276
▁institutional	-9.83308
▁highly	-9.83313
▁Brad	-9.83327
than	-9.83371
▁hands	-9.83392
▁giv	-9.83432
▁replace	-9.83469
▁opening	-9.83653
▁oppose	-9.83726
▁hear	-9.83856
ush	-9.8387
▁Bell	-9.83903
▁page	-9.84005
▁prove	-9.84006
▁foot	-9.84164
oth	-9.84196
ang	-9.8431
cker	-9.84502
▁Thatcher	-9.84581
▁Brook	-9.84582
▁Moscow	-9.84589
▁rumor	-9.84596
▁Ko	-9.84623
▁Pari	-9.84628
▁39	-9.84778
▁blame	-9.84931
CA	-9.85113
▁award	-9.8529
▁owners	-9.85365
▁r	-9.85599
▁convert	-9.856
▁understand	-9.85639
▁Steel	-9.85813
▁arm	-9.85957
▁wrong	-9.86004
▁prompt	-9.86038
▁surprise	-9.86038
▁cheap	-9.86039
▁sound	-9.86061
▁contribute	-9.86106
▁eventual	-9.86342
▁sometime	-9.86411
▁10,000	-9.86512
▁barrel	-9.86513
▁exceed	-9.86626
▁determine	-9.87015
▁central	-9.87168
▁relie	-9.8731
▁strength	-9.87343
▁impos	-9.87353
organ	-9.87445
▁influence	-9.87532
▁bench	-9.87534
▁Charles	-9.8757
▁Over	-9.87579
▁debate	-9.8764
▁Sear	-9.87682
▁sports	-9.8776
▁competitive	-9.87769
▁treatment	-9.87806
▁Philip	-9.87914
▁Inde	-9.88264
ner	-9.8836
▁class	-9.88493
▁exercise	-9.88669
▁Va	-9.88791
▁industri	-9.88925
▁scientist	-9.89046
▁complex	-9.89046
▁police	-9.89047
▁Power	-9.89048
▁Food	-9.89058
▁reorganization	-9.89068
▁recall	-9.89074
▁Mich	-9.89132
ez	-9.89385
alone	-9.89549
▁decide	-9.89622
▁social	-9.89686
▁backed	-9.89795
▁Mitsu	-9.89846
▁1.8	-9.89857
▁coupon	-9.9021
▁V	-9.90497
Webb	-9.90587
▁speculation	-9.90595
▁restaurant	-9.90607
▁portion	-9.90608
▁48	-9.90616
ett	-9.90618
▁defendant	-9.90629
▁expansion	-9.90648
▁Of	-9.90657
▁ounce	-9.90683
▁blue	-9.90722
▁kill	-9.90726
▁patient	-9.90768
▁save	-9.9087
line	-9.91066
▁Un	-9.911
▁roll	-9.91198
▁finish	-9.91256
pence	-9.91472
▁Donald	-9.9164
▁movie	-9.91762
▁experiment	-9.91856
▁Arizona	-9.92147
▁municipal	-9.92147
▁principal	-9.92147
▁technical	-9.92147
▁Rock	-9.92154
▁advantage	-9.92169
▁Such	-9.92173
▁supplie	-9.92184
▁overall	-9.92205
▁instrument	-9.92248
▁professional	-9.92274
▁community	-9.92402
▁threaten	-9.92416
▁AG	-9.92472
▁guilt	-9.9251
▁49	-9.92696
of	-9.92748
▁Pain	-9.92789
▁assume	-9.92846
▁Da	-9.9293
▁affiliate	-9.92953
▁gene	-9.93108
bond	-9.93176
▁Mill	-9.93215
▁rating	-9.93299
▁deep	-9.93539
▁road	-9.93625
▁recommend	-9.93674
▁realize	-9.93705
▁Laws	-9.93717
▁Campeau	-9.93734
▁Central	-9.93734
▁scandal	-9.93735
▁Credit	-9.93749
▁answer	-9.93768
▁tend	-9.93783
▁music	-9.93791
▁slipp	-9.93849
▁46	-9.93945
▁NBC	-9.94
bidding	-9.94381
wise	-9.94422
ext	-9.94429
hose	-9.94459
▁uncertaint	-9.94528
▁developing	-9.9469
▁bit	-9.94859
▁prospect	-9.95303
ntertain	-9.95341
▁Lincoln	-9.95347
▁audience	-9.95347
▁default	-9.95348
▁Ohio	-9.95348
▁Louis	-9.9535
▁1984	-9.95364
▁plastic	-9.9537
▁weakness	-9.95373
▁grant	-9.95467
▁fraud	-9.95492
▁promotion	-9.95511
▁red	-9.95546
▁finding	-9.9557
▁purpose	-9.95575
▁Commerc	-9.95576
▁caus	-9.95601
.125	-9.95641
state	-9.95718
N	-9.95736
▁Sea	-9.95846
hapter	-9.96104
for	-9.96132
Pacific	-9.96159
▁expire	-9.96192
▁developer	-9.96417
▁36	-9.96425
▁mine	-9.96477
igation	-9.96527
com	-9.96591
▁prepared	-9.96605
stance	-9.96673
▁Life	-9.96797
▁clean	-9.9681
▁Paris	-9.96955
▁college	-9.96987
▁Standard	-9.96987
▁guideline	-9.96989
▁Saving	-9.96991
▁lawmaker	-9.97001
▁Medical	-9.97005
▁32	-9.9701
▁quite	-9.9706
▁LIN	-9.97134
▁Merc	-9.97182
▁cell	-9.97276
▁internal	-9.97404
▁Good	-9.97501
rote	-9.97663
▁fine	-9.97704
▁fly	-9.97941
▁1.7	-9.98011
▁mis	-9.98032
▁contain	-9.98223
▁Net	-9.9844
▁4.5	-9.98575
▁extreme	-9.98653
▁Toronto	-9.98653
▁patent	-9.98653
▁pricing	-9.98653
▁boom	-9.98654
▁representative	-9.98654
▁opinion	-9.98677
▁Work	-9.98678
▁Though	-9.98688
▁Burn	-9.9869
▁250	-9.98698
▁discussion	-9.98741
▁Minister	-9.98758
▁minister	-9.98762
▁afternoon	-9.98888
▁Lee	-9.98899
▁front	-9.99023
▁accord	-9.99161
▁handle	-9.99184
▁Jan	-9.99396
▁license	-9.99569
night	-9.99581
TV	-9.99596
▁primar	-9.9964
go	-9.99671
▁62	-9.99939
▁Ste	-10.0005
town	-10.0007
▁details	-10.0022
▁Mixte	-10.0035
▁monetary	-10.0035
▁Edward	-10.0035
▁generate	-10.0035
▁inventor	-10.0039
▁minority	-10.005
▁retirement	-10.005
▁gre	-10.0055
▁coal	-10.0065
▁movement	-10.0071
▁depend	-10.0076
▁signal	-10.0077
losing	-10.0084
▁Mae	-10.01
▁Times	-10.0109
▁Every	-10.0111
▁choice	-10.0116
▁warn	-10.0121
ca	-10.013
ney	-10.0131
hour	-10.0135
▁stage	-10.0144
▁accounting	-10.0162
▁coup	-10.0186
eparate	-10.0193
▁attribute	-10.0202
▁express	-10.0205
▁spot	-10.0205
kept	-10.0205
renz	-10.0207
▁Chinese	-10.0207
▁Exxon	-10.0207
▁task	-10.0208
▁rebound	-10.0208
▁slowdown	-10.0209
▁suspend	-10.0209
▁mainframe	-10.021
▁studie	-10.021
developed	-10.0211
▁luxury	-10.0213
▁Houston	-10.0214
▁weekend	-10.0215
▁distribution	-10.0215
▁halt	-10.0218
▁Morg	-10.0233
▁core	-10.0258
▁town	-10.0292
▁8.5	-10.0302
ro	-10.0305
▁user	-10.0308
▁style	-10.0329
ington	-10.0347
▁Ra	-10.0349
▁shipp	-10.0358
▁provid	-10.036
▁Mc	-10.0379
erling	-10.0382
▁Stephen	-10.0383
ine	-10.0383
▁Dallas	-10.0383
▁liquidity	-10.0384
▁Great	-10.0387
▁expens	-10.0392
▁fil	-10.0399
▁hot	-10.0406
▁publisher	-10.0413
▁stopp	-10.0424
▁Her	-10.0425
▁El	-10.0432
▁41	-10.0438
▁heat	-10.0449
▁formal	-10.0469
▁Gul	-10.0481
▁bear	-10.0489
bout	-10.049
▁hospital	-10.0492
▁defend	-10.0495
▁Uni	-10.0495
▁Defen	-10.0512
▁v	-10.0521
▁environment	-10.0544
▁Center	-10.0556
▁editor	-10.0561
▁virtual	-10.0561
▁contrast	-10.0561
▁trillion	-10.0561
▁Machine	-10.0561
▁Three	-10.0561
▁Continental	-10.0562
▁charit	-10.0563
▁contribution	-10.0566
▁Southern	-10.0569
ster	-10.0571
▁Australian	-10.0583
▁wall	-10.0594
▁st	-10.0597
▁1970	-10.0607
▁responsibl	-10.0609
▁highway	-10.0619
▁34	-10.0621
▁minor	-10.0628
▁AT	-10.063
▁reporter	-10.0633
▁primary	-10.0647
right	-10.0661
▁States	-10.0668
▁dealing	-10.0679
food	-10.0679
stock	-10.068
▁Gran	-10.0687
▁voter	-10.0688
▁GE	-10.0713
▁tri	-10.0735
▁extra	-10.0738
▁Jack	-10.074
morrow	-10.0741
▁shop	-10.0742
▁10-	-10.0742
▁Nicaragua	-10.0743
▁twice	-10.0743
▁Official	-10.0743
▁Joseph	-10.0743
▁easy	-10.0743
▁Panama	-10.0743
▁copper	-10.0743
▁global	-10.0744
▁sudden	-10.0744
▁ultimate	-10.0745
▁surprising	-10.0746
▁display	-10.0746
▁concede	-10.0747
▁resume	-10.0753
▁accus	-10.0761
▁Manufacturer	-10.0761
▁prime	-10.0762
▁plus	-10.0772
▁Roy	-10.0776
▁counter	-10.0779
▁structur	-10.0803
CI	-10.0824
▁hundreds	-10.0861
▁Rey	-10.0883
▁Wh	-10.0907
▁li	-10.0919
▁illegal	-10.0928
▁positive	-10.0928
▁Citicorp	-10.0928
▁quiet	-10.0928
▁Third	-10.0929
▁advertiser	-10.093
▁Oil	-10.0931
▁trigger	-10.0935
▁resource	-10.0936
▁section	-10.0936
▁prett	-10.0942
▁traffic	-10.0944
gone	-10.0945
▁dozen	-10.0946
▁Phillip	-10.095
▁Bill	-10.095
▁represents	-10.0993
ck	-10.1009
il	-10.1036
▁Inter	-10.1048
price	-10.1061
true	-10.108
arlier	-10.1081
ball	-10.1082
ei	-10.1089
▁transfer	-10.1094
▁participat	-10.1101
▁Africa	-10.1102
▁bus	-10.111
▁indicat	-10.1115
ntrol	-10.1115
▁wonder	-10.1116
▁fundamental	-10.1117
▁incentive	-10.1117
▁senator	-10.1117
▁Broadcast	-10.1117
▁Prime	-10.1117
▁Report	-10.1117
▁household	-10.1118
▁obligation	-10.1118
▁baseball	-10.1121
▁reaction	-10.1122
▁Communist	-10.1125
▁resignation	-10.1125
▁repair	-10.1125
▁Sam	-10.113
▁receiv	-10.1138
▁7.5	-10.1142
▁grand	-10.1143
▁Mark	-10.1147
▁swing	-10.1148
▁99	-10.115
▁basic	-10.1152
▁Sir	-10.1158
▁putt	-10.1163
▁generation	-10.1164
▁Ba	-10.1169
▁communications	-10.117
mbert	-10.1185
ant	-10.1194
▁retire	-10.1194
▁requir	-10.1202
▁willing	-10.1202
ol	-10.1212
25	-10.1219
amid	-10.1232
▁site	-10.1256
yield	-10.1257
de	-10.127
▁ways	-10.1281
▁annually	-10.1288
▁door	-10.1292
▁Korea	-10.1295
▁3.5	-10.1297
▁Star	-10.13
▁lift	-10.1309
▁Jersey	-10.1309
▁worry	-10.1311
▁Bear	-10.1314
▁Oakland	-10.1318
▁throw	-10.1318
▁consulting	-10.1334
▁automotive	-10.1342
▁send	-10.1348
▁leav	-10.1354
SCI	-10.1365
▁Technology	-10.1369
▁conclude	-10.1376
ations	-10.1383
▁century	-10.1391
▁fewer	-10.1394
▁hostil	-10.1398
▁secure	-10.1409
▁2.3	-10.1416
▁lender	-10.1432
nel	-10.1434
half	-10.1457
▁Park	-10.147
▁2.2	-10.1494
▁except	-10.15
ab	-10.1503
▁famili	-10.1505
▁egg	-10.1505
bishi	-10.1505
▁Resource	-10.1505
▁Major	-10.1505
▁Like	-10.1505
▁Max	-10.1506
▁Intel	-10.1506
▁deput	-10.1508
▁address	-10.151
▁certificate	-10.1511
▁electric	-10.1514
▁conventional	-10.1516
▁aide	-10.1517
▁frequent	-10.1521
elecommunication	-10.1522
▁detail	-10.1524
▁park	-10.1526
U	-10.1528
▁direction	-10.1528
▁nuclear	-10.1537
▁commodity	-10.1538
bank	-10.154
▁amendment	-10.1543
▁ABC	-10.155
▁painting	-10.155
▁Real	-10.1563
▁table	-10.1565
F	-10.1592
▁partners	-10.1593
▁draw	-10.1596
▁52	-10.1597
▁street	-10.1599
▁denie	-10.1604
▁chemicals	-10.1611
▁injur	-10.1622
▁ratings	-10.1637
▁declare	-10.1638
tz	-10.1641
▁critic	-10.1648
broad	-10.166
▁Labor	-10.1675
▁proceeding	-10.1697
▁engine	-10.1697
▁fel	-10.1702
uncil	-10.1705
▁Foreign	-10.1705
▁Mortgage	-10.1705
▁abandon	-10.1705
▁possibilit	-10.1705
▁voice	-10.1705
▁Boeing	-10.1706
▁entertain	-10.1709
▁association	-10.1709
furt	-10.1709
▁argument	-10.171
▁pace	-10.1712
▁moderate	-10.1718
more	-10.172
▁mere	-10.1724
▁print	-10.1725
service	-10.1728
▁Holly	-10.173
▁120	-10.1734
▁Atlanti	-10.1734
▁strategic	-10.1736
▁weaken	-10.1744
▁mixed	-10.1763
▁employer	-10.1769
▁Deal	-10.1777
las	-10.1791
▁miss	-10.1796
hard	-10.1797
▁ventures	-10.1803
▁middle	-10.1803
▁cast	-10.1805
▁Fi	-10.1821
med	-10.1821
▁character	-10.187
▁0.2	-10.1892
▁Partners	-10.1909
▁Energy	-10.1909
▁Industry	-10.1909
▁title	-10.1909
▁1982	-10.191
▁coverage	-10.1914
▁gross	-10.1914
V	-10.1918
▁Aug	-10.1918
▁excess	-10.1919
▁crude	-10.192
as	-10.192
▁planner	-10.1922
▁wife	-10.1923
▁borrow	-10.1925
▁acknowledge	-10.193
uary	-10.1932
▁cross	-10.1937
▁Con	-10.1966
▁wave	-10.1994
-1	-10.2001
▁self	-10.2001
▁tape	-10.2003
tic	-10.2023
▁worrie	-10.2037
▁corn	-10.2041
▁cutting	-10.2046
▁confiden	-10.2053
▁writ	-10.2083
management	-10.2092
50,000	-10.2097
▁drugs	-10.2097
▁feature	-10.2102
▁190	-10.2108
▁Trans	-10.2114
▁ratio	-10.2118
▁doctor	-10.2118
▁HUD	-10.2118
▁crisis	-10.2118
▁politician	-10.2118
▁pipeline	-10.2121
wake	-10.2123
▁essential	-10.2129
▁anticipat	-10.2145
▁Turn	-10.2147
▁fears	-10.2155
▁fashion	-10.2169
hire	-10.217
am	-10.2171
▁tool	-10.2176
▁disk	-10.2186
▁switch	-10.2187
▁distribute	-10.2193
▁stronger	-10.2196
▁sustain	-10.2213
▁min	-10.2239
▁broadcast	-10.2248
▁3.1	-10.226
▁Si	-10.2263
▁ending	-10.2264
lli	-10.2265
▁85	-10.2272
▁none	-10.2274
▁Financ	-10.2276
ide	-10.2279
▁58	-10.2282
ac	-10.2288
▁Val	-10.2292
▁54	-10.2293
mmunity	-10.2303
▁Pea	-10.2305
stein	-10.2306
▁complaint	-10.2312
▁select	-10.2326
▁Hewlett	-10.233
▁Saturday	-10.233
▁categor	-10.233
▁Prudential	-10.2331
▁extraordinar	-10.2331
▁zero	-10.2331
▁MGM	-10.2331
rom	-10.2332
▁alliance	-10.2332
▁bar	-10.2333
▁compromise	-10.2337
mond	-10.2337
▁specialty	-10.2338
▁11\/	-10.234
▁describe	-10.2342
▁affair	-10.2344
▁dealer	-10.2345
▁critical	-10.235
▁Store	-10.2352
▁Volu	-10.2357
▁indication	-10.2359
▁Fuji	-10.2363
▁guy	-10.2366
▁100,000	-10.2371
rought	-10.2371
▁living	-10.2372
▁Ital	-10.2374
▁br	-10.2383
▁Bei	-10.2389
▁Free	-10.24
▁bike	-10.2401
▁societ	-10.2402
▁prior	-10.2404
▁apart	-10.2408
▁Line	-10.2411
▁responsibilit	-10.2416
mous	-10.2418
▁severe	-10.2428
▁picture	-10.2429
range	-10.2431
▁handl	-10.2431
▁assistant	-10.2434
▁Gar	-10.244
▁dividends	-10.2443
▁urg	-10.2455
▁Carl	-10.2497
▁12.5	-10.2508
▁publish	-10.2514
limina	-10.2516
tech	-10.252
space	-10.2521
▁electronics	-10.2521
▁dead	-10.2522
▁renew	-10.2537
▁Se	-10.254
▁walk	-10.2545
▁Th	-10.2546
uebec	-10.2548
▁Saatchi	-10.2548
▁Doug	-10.2549
Pack	-10.255
▁arrangement	-10.255
▁bargain	-10.2551
▁love	-10.2552
▁resolve	-10.2553
annie	-10.2554
▁Lang	-10.2555
▁Indian	-10.2558
ov	-10.2558
▁attend	-10.2559
▁Korean	-10.2565
▁setting	-10.2565
tsu	-10.2571
▁penalt	-10.2573
ical	-10.2586
dale	-10.2592
▁ban	-10.2593
▁Fred	-10.2597
▁movies	-10.2602
▁language	-10.2612
JR	-10.2623
▁nor	-10.2626
▁stress	-10.2627
ities	-10.2627
ence	-10.2636
▁brief	-10.264
▁race	-10.2644
▁Thu	-10.266
▁Hill	-10.2666
▁owe	-10.2668
▁franchise	-10.2678
▁shopp	-10.2708
▁Mary	-10.2713
▁syndicate	-10.2734
place	-10.274
fund	-10.274
▁900	-10.2745
▁fit	-10.2747
▁books	-10.2749
board	-10.2749
water	-10.2754
▁counsel	-10.2763
istrict	-10.2767
▁2.6	-10.2769
▁Public	-10.277
▁taxpayer	-10.277
▁enjoy	-10.277
▁application	-10.277
▁rush	-10.2771
▁outlook	-10.2772
▁Black	-10.2773
▁AMR	-10.2774
▁studio	-10.2775
▁supposed	-10.2778
▁seller	-10.2778
▁2.4	-10.2787
▁rare	-10.2788
▁Nikk	-10.2795
llor	-10.2798
law	-10.2802
▁rank	-10.2812
▁crop	-10.2835
▁pursue	-10.2841
▁Lat	-10.2845
▁Chr	-10.2857
▁fan	-10.2879
▁relations	-10.2887
▁borrowing	-10.2904
▁Lor	-10.2907
▁47	-10.2912
▁bridge	-10.2914
▁66	-10.292
▁employment	-10.2924
▁priorit	-10.2928
▁warning	-10.2929
ola	-10.294
▁Up	-10.2941
▁refuse	-10.2943
▁employ	-10.2947
▁garden	-10.2954
insurance	-10.2983
trust	-10.2988
aid	-10.2991
▁Minist	-10.2994
ecutive	-10.2996
▁pharmaceutical	-10.2997
▁Petroleum	-10.2998
▁Telephone	-10.2998
▁Coast	-10.2998
▁criticism	-10.2998
▁membership	-10.2999
▁mention	-10.3
▁silver	-10.3
▁Loan	-10.3002
▁search	-10.3004
▁ensure	-10.3005
▁Walter	-10.3005
▁Costa	-10.3006
▁litigat	-10.301
▁collection	-10.3011
▁cancel	-10.3012
arns	-10.3013
jing	-10.3014
▁strengthen	-10.3026
▁5,000	-10.303
▁Hall	-10.3032
▁57	-10.3036
▁Li	-10.3041
▁poll	-10.3054
loss	-10.3059
ice	-10.3061
▁EC	-10.3078
▁Law	-10.3082
▁Bob	-10.3084
▁Mit	-10.3094
▁Hart	-10.3101
▁triple	-10.3106
▁Micro	-10.3127
▁101	-10.3127
pan	-10.3131
▁depress	-10.3133
▁hire	-10.3138
▁insure	-10.3141
▁ready	-10.3141
▁Harris	-10.3147
▁98	-10.3148
▁wear	-10.3155
▁intelligen	-10.3161
ky	-10.3163
▁modern	-10.3164
witzer	-10.3184
▁7.8	-10.319
▁laws	-10.3191
▁7\/	-10.3199
▁simple	-10.3209
like	-10.3215
West	-10.322
▁inter	-10.3222
▁achieve	-10.3228
▁Source	-10.323
▁culture	-10.323
▁exact	-10.323
▁resort	-10.323
▁participant	-10.323
▁Future	-10.323
▁coffee	-10.323
▁professor	-10.323
▁circum	-10.323
▁slump	-10.323
▁solution	-10.323
▁Drug	-10.3231
▁Economic	-10.3231
▁consist	-10.3231
▁Bridge	-10.3232
▁violation	-10.3232
▁flag	-10.3233
▁shipment	-10.3233
▁Pittsburgh	-10.3233
▁Cross	-10.3236
▁Show	-10.3241
▁adjustment	-10.3241
▁Ross	-10.3244
▁spirit	-10.3245
▁attractive	-10.3248
ate	-10.3255
chell	-10.3259
tuck	-10.3263
▁cap	-10.3267
▁north	-10.3269
▁career	-10.3285
▁53	-10.3288
▁vot	-10.3293
▁appropriate	-10.3308
▁founder	-10.3318
▁Pre	-10.333
▁Miss	-10.3356
▁800	-10.3359
▁protest	-10.3381
ory	-10.3384
▁3.6	-10.3392
mer	-10.3392
li	-10.3399
▁controversi	-10.3402
ba	-10.3409
▁trip	-10.341
▁remark	-10.3426
▁Spa	-10.344
▁sides	-10.3458
▁Ru	-10.3458
▁Israel	-10.3463
▁progress	-10.3466
▁seasonal	-10.3468
▁Ogilvy	-10.3468
▁cautious	-10.3468
▁ceiling	-10.3468
▁fresh	-10.3468
▁procedure	-10.3468
koos	-10.3468
▁apply	-10.3468
▁curb	-10.3468
▁message	-10.3468
▁Apple	-10.3469
▁su	-10.347
▁1993	-10.3473
▁Term	-10.3476
▁8.3	-10.3476
▁referr	-10.3478
▁bailout	-10.3479
grade	-10.348
▁profitab	-10.3482
technology	-10.3492
▁Just	-10.3494
ker	-10.3505
▁equivalent	-10.352
▁repeated	-10.3523
▁Force	-10.3527
-2	-10.3541
apor	-10.3543
▁mill	-10.3549
▁edge	-10.3554
▁contractor	-10.357
▁3.3	-10.3578
▁exten	-10.358
down	-10.3609
▁Corr	-10.361
▁Ken	-10.3622
tion	-10.3633
▁blood	-10.3641
▁merge	-10.365
▁urge	-10.3657
▁names	-10.3674
sumption	-10.3684
▁contribut	-10.3687
▁tight	-10.3694
▁worse	-10.3697
gun	-10.37
▁bottom	-10.3712
▁burden	-10.3712
▁Bureau	-10.3712
▁obvious	-10.3712
▁metric	-10.3712
▁Lawrence	-10.3712
YSE	-10.3712
▁victor	-10.3712
▁wild	-10.3712
free	-10.3713
▁editorial	-10.3713
▁genetic	-10.3713
▁animal	-10.3714
▁RATE	-10.3714
▁edition	-10.3715
▁eliminate	-10.3715
▁Chance	-10.3715
▁Christmas	-10.3715
rry	-10.3716
ec	-10.3719
▁attitude	-10.3719
▁rich	-10.3721
▁refiner	-10.3722
▁Du	-10.3724
▁sheet	-10.3724
▁2.8	-10.3725
▁location	-10.3726
▁inquir	-10.373
▁color	-10.3734
▁slide	-10.3735
ious	-10.374
▁cycle	-10.3742
▁ticket	-10.3753
▁card	-10.3764
▁cold	-10.3769
▁appoint	-10.3769
▁pact	-10.3795
▁purchas	-10.3796
▁Mess	-10.38
E	-10.3809
eller	-10.382
▁Na	-10.3822
▁lie	-10.3824
table	-10.3842
ze	-10.386
▁trie	-10.3875
▁thin	-10.3891
▁ex	-10.3902
▁Mo	-10.3904
▁treat	-10.3904
enor	-10.3934
▁politic	-10.3941
▁students	-10.3948
zo	-10.3953
cut	-10.3954
▁correct	-10.3956
▁mass	-10.3959
▁basket	-10.3962
▁English	-10.3962
▁School	-10.3962
▁caution	-10.3962
▁colleague	-10.3962
▁semiconductor	-10.3962
▁Atlanta	-10.3962
▁exposure	-10.3962
▁window	-10.3962
▁desk	-10.3962
efore	-10.3963
▁Four	-10.3963
▁allegation	-10.3965
▁Asia	-10.3966
▁speech	-10.3966
▁Banco	-10.3966
▁67	-10.3966
largest	-10.397
week	-10.397
vice	-10.3972
▁sentence	-10.3973
▁chang	-10.3974
▁Science	-10.3978
▁apple	-10.3978
▁anticipate	-10.398
▁crack	-10.3981
▁father	-10.3985
ma	-10.3996
▁56	-10.3996
00	-10.3999
▁tourist	-10.4
▁shot	-10.4009
▁constitutional	-10.4009
▁waste	-10.4009
▁beat	-10.4029
▁tumbled	-10.4068
▁branch	-10.4083
▁works	-10.4106
▁merchandise	-10.4107
5,000	-10.4109
▁Allian	-10.4114
▁publishing	-10.4116
erson	-10.412
▁59	-10.4121
ef	-10.413
ahn	-10.4146
▁Fla	-10.4148
ries	-10.4149
▁Gas	-10.4152
all	-10.4159
▁maxim	-10.4163
hus	-10.4163
id	-10.4174
▁prefer	-10.4189
ED	-10.4193
,	-10.4202
▁audit	-10.4212
▁inde	-10.4215
▁pill	-10.4218
▁mountain	-10.4218
▁bolster	-10.4218
▁knock	-10.4218
▁merchant	-10.4218
▁principle	-10.4218
▁restructure	-10.4218
▁technique	-10.4218
▁passenger	-10.4218
▁worst	-10.4218
▁ministr	-10.4219
▁Carolina	-10.4219
▁deadline	-10.4219
▁Chase	-10.4219
▁6.9	-10.4219
▁AIDS	-10.4219
▁Paper	-10.422
▁1983	-10.422
▁mother	-10.4222
▁63	-10.4223
▁Kemp	-10.4229
▁nature	-10.4235
▁afford	-10.4235
▁supplier	-10.4236
income	-10.4236
▁bidder	-10.4247
die	-10.4248
▁Breede	-10.4251
▁Dun	-10.4278
▁perform	-10.4301
▁efficient	-10.4308
ri	-10.431
▁writer	-10.431
▁Rev	-10.433
▁restrict	-10.4336
▁Ray	-10.4341
▁weight	-10.4343
▁weekly	-10.4349
▁95	-10.4356
▁Whitt	-10.4383
▁screen	-10.4386
▁seed	-10.4399
▁currenc	-10.4401
▁assist	-10.4411
▁Mes	-10.4424
▁star	-10.4436
▁slid	-10.4457
OP	-10.4457
▁stem	-10.4458
▁India	-10.4468
▁administrati	-10.4471
gen	-10.4478
▁conflict	-10.4481
▁sophisticat	-10.4482
▁status	-10.4482
▁credib	-10.4482
▁Right	-10.4482
▁dump	-10.4482
▁mount	-10.4482
▁eager	-10.4483
▁Aero	-10.4483
▁Hunt	-10.4484
▁slash	-10.4485
▁exclusive	-10.4489
PEC	-10.4492
▁9\/	-10.4492
▁insider	-10.4493
▁brain	-10.45
air	-10.4501
▁Sunday	-10.4507
trading	-10.4508
▁Post	-10.451
▁faster	-10.4511
q	-10.4516
▁observer	-10.4516
▁aspect	-10.4517
some	-10.4519
▁round	-10.4519
▁gap	-10.4523
▁projection	-10.4525
▁consideration	-10.4526
▁lease	-10.4528
▁inside	-10.4531
bust	-10.4538
▁recognize	-10.4539
ay	-10.4546
▁universit	-10.4547
secur	-10.4556
▁89	-10.4557
▁72	-10.4566
▁warm	-10.4567
▁Mal	-10.4567
elke	-10.4579
▁remove	-10.4598
▁drink	-10.4601
19	-10.461
THE	-10.4614
▁Scott	-10.4625
▁69	-10.4643
▁1.9	-10.4649
▁ro	-10.4657
▁6.5	-10.4664
▁Lo	-10.4674
▁genes	-10.4674
▁squeeze	-10.4679
▁aware	-10.4679
mura	-10.4691
▁Che	-10.4696
▁bureau	-10.4698
▁ne	-10.4716
▁198	-10.4721
▁prison	-10.4722
ill	-10.4722
▁High	-10.4732
▁collect	-10.4736
▁My	-10.4737
BI	-10.4741
▁ghost	-10.4747
▁Thompson	-10.4752
▁activist	-10.4752
▁tentative	-10.4752
▁nervous	-10.4752
▁Trump	-10.4752
▁dismiss	-10.4752
▁permanent	-10.4752
▁Housing	-10.4752
▁Wolf	-10.4752
▁pattern	-10.4752
▁Interstate	-10.4752
▁reputation	-10.4753
▁steelmaker	-10.4753
▁rallie	-10.4753
▁legislator	-10.4753
▁massive	-10.4754
EDER	-10.4754
▁shock	-10.4754
▁Roman	-10.4754
▁secret	-10.4755
▁Young	-10.4756
▁connection	-10.4757
▁Davis	-10.4758
▁68	-10.4759
▁Art	-10.4759
▁Greens	-10.476
known	-10.4775
chip	-10.4779
▁bio	-10.4782
▁bann	-10.4801
▁emerge	-10.4808
tegrated	-10.4813
▁stretch	-10.482
▁widen	-10.4821
70	-10.4832
▁disappointing	-10.4833
▁cons	-10.4835
▁Tom	-10.4844
col	-10.4866
▁appeals	-10.4884
▁permit	-10.4888
▁presen	-10.489
▁2.7	-10.4901
▁hir	-10.4914
amps	-10.4915
▁branche	-10.4915
▁sit	-10.4929
.05	-10.4931
▁7.2	-10.4939
ox	-10.4958
dom	-10.4967
▁Hone	-10.497
ka	-10.4972
pped	-10.4994
ium	-10.4997
van	-10.4998
▁Ill	-10.5001
▁61	-10.5016
▁introduc	-10.5018
▁Compa	-10.5019
▁concept	-10.5024
▁react	-10.5024
▁method	-10.5024
▁identify	-10.503
▁turmoil	-10.503
▁Mobil	-10.503
▁Executive	-10.503
▁wholesale	-10.503
▁comparison	-10.503
▁Luf	-10.5031
▁poison	-10.5031
▁BellSouth	-10.5034
▁Sing	-10.5038
▁Daniel	-10.5038
▁function	-10.5039
▁KK	-10.504
▁crowd	-10.5043
▁catch	-10.5046
▁drill	-10.5048
▁King	-10.5054
▁advise	-10.5054
▁fellow	-10.5057
▁flexib	-10.5061
spread	-10.5065
profit	-10.5068
▁assumption	-10.5068
interest	-10.507
▁moral	-10.5074
▁180	-10.5078
▁sufficient	-10.5091
▁refus	-10.5097
▁Never	-10.5099
ntil	-10.5112
▁square	-10.5112
▁reduc	-10.5118
▁load	-10.5119
▁Com	-10.5128
▁Phel	-10.5129
▁combine	-10.5132
maker	-10.5135
drew	-10.5147
▁Sin	-10.5148
uel	-10.5153
polit	-10.5155
▁restore	-10.516
Newport	-10.5186
▁host	-10.5198
▁Vall	-10.5203
ition	-10.5209
▁artist	-10.5231
▁concentrate	-10.5235
▁desire	-10.5252
der	-10.5271
ff	-10.5272
▁Ni	-10.5272
mann	-10.5275
▁ma	-10.5282
▁8.2	-10.5294
▁eliminat	-10.5312
▁solid	-10.5315
▁Virgin	-10.5315
▁Pennsylvania	-10.5315
▁Philadelphia	-10.5315
▁WCRS	-10.5315
▁bulk	-10.5315
▁surplus	-10.5315
▁arrest	-10.5315
▁somewhat	-10.5315
▁gasoline	-10.5315
▁peak	-10.5315
▁consistent	-10.5316
▁Hanover	-10.5316
▁Martin	-10.5316
▁neighborhood	-10.5316
▁rang	-10.5317
▁Class	-10.5318
▁brother	-10.5319
▁score	-10.532
▁Hungar	-10.5322
▁350	-10.5322
▁radio	-10.5322
▁withdrawal	-10.5323
▁scene	-10.5327
▁master	-10.5327
▁Mur	-10.5328
▁tobacco	-10.5334
▁occurr	-10.5334
▁blow	-10.5335
▁fur	-10.5338
▁fleet	-10.534
▁novel	-10.5341
▁Mik	-10.5346
recapitalization	-10.5347
▁facing	-10.5347
▁stori	-10.5347
▁register	-10.5364
ger	-10.5371
▁identifie	-10.5371
▁97	-10.5392
▁feeling	-10.5399
▁payable	-10.5408
▁compete	-10.5429
dak	-10.5438
▁Ak	-10.5438
▁theater	-10.5444
nois	-10.5445
lin	-10.545
▁engage	-10.546
▁Kell	-10.5461
car	-10.5463
lo	-10.5463
▁forest	-10.5465
▁proper	-10.5492
ane	-10.5504
▁author	-10.5517
ver	-10.5559
▁g	-10.5574
▁plead	-10.5585
▁stands	-10.5586
ture	-10.559
▁hop	-10.5592
▁install	-10.5598
▁multiple	-10.5601
hood	-10.5601
▁shut	-10.5604
▁video	-10.5609
▁unveil	-10.5609
▁Remic	-10.5609
▁machinist	-10.561
▁LBO	-10.5611
▁attach	-10.5611
▁scientific	-10.5613
▁CORP	-10.5614
▁husband	-10.5614
▁1974	-10.5618
▁steady	-10.562
▁II	-10.5621
▁careful	-10.5625
▁column	-10.5628
▁speak	-10.5634
▁reache	-10.5639
▁student	-10.5645
▁ran	-10.5661
▁democrac	-10.5667
▁publication	-10.5674
exchange	-10.5691
▁Hu	-10.5701
▁Son	-10.5701
▁revive	-10.5703
▁196	-10.5707
▁confus	-10.5729
▁64	-10.5744
▁ignor	-10.5745
▁Wis	-10.5749
▁Gi	-10.5755
▁0.1	-10.5759
zal	-10.576
▁determin	-10.5762
anta	-10.5778
▁Sever	-10.5779
I	-10.5789
▁cool	-10.5789
▁remov	-10.5792
▁fat	-10.5797
▁Gon	-10.5835
▁plane	-10.5836
▁charg	-10.5846
▁sole	-10.5857
ivity	-10.5867
▁issu	-10.5886
▁settl	-10.589
scale	-10.5893
▁compet	-10.5895
ANC	-10.5899
▁am	-10.5905
▁Cath	-10.5908
▁Tax	-10.5911
▁NASA	-10.5912
▁Ortega	-10.5912
▁Rothschild	-10.5912
▁Thomson	-10.5912
▁Webster	-10.5912
▁cigarette	-10.5912
▁definitive	-10.5912
▁plummet	-10.5912
▁Equit	-10.5912
▁defensive	-10.5912
etna	-10.5913
▁Saab	-10.5913
▁barrier	-10.5913
▁dramatic	-10.5913
▁memory	-10.5914
▁Equip	-10.5914
▁downturn	-10.5914
▁freedom	-10.5914
▁population	-10.5914
▁Giant	-10.5915
▁Olive	-10.5915
▁pregnan	-10.5917
▁suspect	-10.5917
▁Philippine	-10.5917
▁persuade	-10.5917
▁strategist	-10.5918
▁Berlin	-10.5918
▁aero	-10.5918
▁apartment	-10.5919
▁Iran	-10.5919
▁Color	-10.5921
▁4.8	-10.5926
▁3.9	-10.5928
▁indicator	-10.5929
▁Dutch	-10.5932
▁pollution	-10.5934
▁dominate	-10.5934
▁copy	-10.5936
▁listen	-10.5938
▁farm	-10.594
▁750	-10.594
▁initiative	-10.5941
▁Wood	-10.5944
▁driv	-10.5947
▁Brand	-10.5948
quality	-10.5951
ring	-10.5956
▁expanding	-10.5957
▁sensitive	-10.5958
▁wood	-10.5958
▁ride	-10.5963
Bache	-10.5965
▁1.25	-10.5969
▁eat	-10.5973
▁Press	-10.5975
risk	-10.5975
▁Massac	-10.5976
store	-10.5979
▁Pan	-10.5982
life	-10.5987
▁Bas	-10.5992
▁criticize	-10.5995
item	-10.5996
▁Ban	-10.5996
ha	-10.5998
▁Allen	-10.6008
member	-10.6013
▁emerg	-10.6015
ray	-10.6045
▁Har	-10.6055
▁Call	-10.6066
oul	-10.6083
▁theory	-10.6088
▁confident	-10.6088
▁3.4	-10.609
▁Main	-10.6096
▁recorded	-10.6098
card	-10.6099
▁resist	-10.6128
heim	-10.6139
▁Mi	-10.6154
▁abuse	-10.6154
sky	-10.6172
▁lives	-10.618
▁Rate	-10.6184
▁Penn	-10.619
▁enable	-10.6202
▁shake	-10.6206
▁Small	-10.6211
▁manufacture	-10.6213
▁creativ	-10.6218
▁Dor	-10.6218
▁convict	-10.6219
▁Marsha	-10.6222
▁Short	-10.6224
▁lobby	-10.6224
▁divide	-10.6225
▁destroy	-10.6225
▁regime	-10.6225
▁veteran	-10.6225
▁Taiwan	-10.6225
▁Miami	-10.6225
▁compensation	-10.6226
▁pool	-10.6226
▁assert	-10.6227
▁remember	-10.6227
▁Money	-10.6227
▁cellular	-10.6228
▁Maybe	-10.6231
▁Authorit	-10.6232
▁attribut	-10.6234
▁Via	-10.6237
ani	-10.6237
▁Di	-10.6241
▁surface	-10.6245
▁colon	-10.6248
▁promote	-10.6248
▁refund	-10.6248
rew	-10.6249
▁Men	-10.6262
formation	-10.6264
▁reluctant	-10.6269
house	-10.6279
▁male	-10.6282
▁Whit	-10.6293
▁serv	-10.6294
reduction	-10.6298
▁Jim	-10.6299
▁cosmetics	-10.6314
▁Ic	-10.6321
▁tru	-10.6335
▁600	-10.6336
▁scale	-10.635
▁wealth	-10.6352
▁lay	-10.6362
dollar	-10.6377
▁notice	-10.6379
▁loyalt	-10.6393
▁Commodit	-10.6416
▁covering	-10.6434
▁weapons	-10.6443
▁4.6	-10.6454
▁guide	-10.646
▁7.1	-10.6461
▁shape	-10.6474
▁rape	-10.6485
▁route	-10.6489
▁sponsor	-10.6493
ado	-10.6512
▁Cap	-10.6515
▁spark	-10.6516
SB	-10.6519
ama	-10.652
▁broke	-10.652
▁Dai	-10.6523
▁Den	-10.6524
▁Back	-10.653
▁peace	-10.6545
▁Enterprise	-10.6547
▁financier	-10.6547
▁scenario	-10.6547
▁subsequent	-10.6547
▁false	-10.6547
▁Westinghouse	-10.6548
▁balloon	-10.6548
▁Colgate	-10.6548
▁routine	-10.6548
▁neighbor	-10.6548
▁rescue	-10.6548
▁psyllium	-10.6548
▁disclosure	-10.6548
▁Company	-10.6548
▁pulp	-10.6548
▁disease	-10.6548
▁Rena	-10.6549
▁bonus	-10.6549
▁ski	-10.655
▁130	-10.655
▁spill	-10.655
▁indictment	-10.655
▁Products	-10.655
▁Cleveland	-10.6552
▁newsletter	-10.6552
▁Electronic	-10.6552
▁Albert	-10.6553
▁institute	-10.6554
▁charter	-10.6555
▁Russian	-10.6556
▁1979	-10.6559
led	-10.656
▁successor	-10.6561
▁Lill	-10.6568
▁Dar	-10.6571
▁connect	-10.6571
▁African	-10.6573
▁Toyo	-10.6574
▁stemm	-10.6578
▁200,000	-10.6581
▁scheme	-10.6584
▁rock	-10.6596
▁variet	-10.6597
ise	-10.6624
▁chose	-10.6626
ux	-10.6627
room	-10.6627
▁airport	-10.6628
process	-10.6631
▁Mid	-10.6632
▁repurchase	-10.6639
truck	-10.6651
▁Barr	-10.6658
▁Estimate	-10.6676
▁advocate	-10.6677
rick	-10.6678
ru	-10.6683
▁Out	-10.6688
coming	-10.6703
▁inform	-10.6707
older	-10.671
40	-10.6716
nce	-10.6718
ated	-10.6723
gers	-10.6725
ua	-10.6725
▁tim	-10.6748
▁wish	-10.6748
▁Far	-10.6752
▁Vi	-10.6762
▁2.1	-10.6764
ak	-10.6769
▁Arab	-10.6792
▁consen	-10.6793
no	-10.6794
ski	-10.6798
▁dis	-10.6803
.95	-10.6811
ization	-10.6815
▁forward	-10.6829
aiwa	-10.683
▁cent	-10.6833
ella	-10.684
▁4.2	-10.6845
▁trail	-10.685
▁occur	-10.6858
▁permissi	-10.6859
▁73	-10.6861
▁Banker	-10.6865
▁3.8	-10.688
▁Baltimore	-10.6881
▁Detroit	-10.6881
▁degree	-10.6881
▁dream	-10.6881
▁Cincinnati	-10.6881
▁horse	-10.6881
▁steep	-10.6881
▁Current	-10.6881
▁Paramount	-10.6881
▁opponent	-10.6881
▁adequate	-10.6881
crete	-10.6881
▁crucial	-10.6882
▁error	-10.6882
▁NEC	-10.6882
▁skeptic	-10.6883
▁pour	-10.6884
▁respective	-10.6884
▁approximate	-10.6884
▁Long	-10.6888
▁Gali	-10.6888
▁arrive	-10.689
▁Vega	-10.6893
▁discipline	-10.6893
gram	-10.6894
▁plent	-10.6895
▁Who	-10.6896
▁partial	-10.6899
▁Cray	-10.69
▁comfortabl	-10.6908
▁sex	-10.6915
▁club	-10.6929
▁reverse	-10.6934
▁bureaucrat	-10.6947
▁oversee	-10.6949
nard	-10.6951
▁Pat	-10.6952
W	-10.6954
▁storage	-10.6955
loan	-10.6961
▁governor	-10.6966
foot	-10.6975
ult	-10.6976
▁improv	-10.6977
business	-10.6977
▁burn	-10.6979
▁casino	-10.6981
▁admit	-10.6988
▁77	-10.6989
▁violate	-10.7001
igan	-10.7002
▁approv	-10.7003
▁appropriation	-10.701
ith	-10.7014
▁Care	-10.702
leo	-10.702
▁authorize	-10.7024
io	-10.7052
▁Cen	-10.7056
▁struggle	-10.7057
▁permitt	-10.7061
▁Bor	-10.7063
▁Witt	-10.7072
▁pit	-10.7084
ransportation	-10.7087
▁exclud	-10.7087
lan	-10.7098
▁fare	-10.7102
▁deteriorat	-10.7116
▁assum	-10.7116
▁sub	-10.7127
▁killing	-10.7147
▁lock	-10.7156
acre	-10.7158
hem	-10.716
rell	-10.7163
▁hoped	-10.7169
▁tank	-10.7186
▁murder	-10.719
▁statistic	-10.7199
▁71	-10.7205
▁brew	-10.7208
▁strip	-10.7214
▁defect	-10.7219
ection	-10.7221
▁interpret	-10.7221
mposite	-10.7225
▁surround	-10.7226
▁Government	-10.7226
▁Phoenix	-10.7226
▁applie	-10.7226
▁redemption	-10.7226
▁reveal	-10.7226
▁Bartle	-10.7226
▁Option	-10.7226
▁elaborat	-10.7226
▁medium	-10.7226
▁Fidel	-10.7226
ealand	-10.7226
▁Foot	-10.7226
▁contact	-10.7226
▁Cohen	-10.7226
▁resolution	-10.7226
▁Roger	-10.7226
▁label	-10.7226
▁massage	-10.7227
▁overhaul	-10.7228
▁Lew	-10.7228
▁700	-10.7228
▁Director	-10.7229
▁Marcos	-10.7229
▁Ariz	-10.7229
▁vast	-10.7229
▁subscriber	-10.723
▁Gillett	-10.723
▁Fox	-10.7231
appreciation	-10.7233
▁Pink	-10.7233
▁shortage	-10.7236
▁Fire	-10.7237
▁recommendation	-10.7239
▁Arthur	-10.7239
▁optimistic	-10.724
▁broken	-10.7242
▁Federat	-10.7244
▁intense	-10.7245
▁viewers	-10.7251
▁Cal	-10.7252
▁Pont	-10.7254
▁numer	-10.7255
▁transport	-10.7255
▁12-	-10.7257
▁Common	-10.7267
▁ship	-10.7267
▁Turk	-10.7267
▁probe	-10.7267
▁la	-10.7268
▁Seid	-10.7274
▁FA	-10.7283
▁140	-10.729
▁hundred	-10.7299
▁enhance	-10.7299
ennis	-10.73
▁swap	-10.73
control	-10.7301
▁stick	-10.7301
▁submitt	-10.7304
▁Pils	-10.7309
▁Profit	-10.7318
ow	-10.732
▁freight	-10.7321
▁controvers	-10.7322
▁perfect	-10.7328
end	-10.733
issue	-10.7331
coupon	-10.7332
▁trends	-10.7334
▁Ha	-10.7339
.80	-10.7346
▁4.9	-10.7346
▁Say	-10.735
▁Ga	-10.7351
▁4.7	-10.7353
▁5.3	-10.736
▁125	-10.7365
▁Pe	-10.7368
controll	-10.7372
▁respect	-10.7375
▁Christ	-10.7375
pe	-10.7375
▁110	-10.7378
▁readers	-10.739
▁cooperati	-10.7394
▁0.3	-10.74
▁76	-10.7405
▁prepare	-10.7408
▁Jen	-10.741
▁Steven	-10.7422
mak	-10.7435
▁ignore	-10.7448
PP	-10.7449
▁resistan	-10.7452
how	-10.7457
▁troubles	-10.7459
ova	-10.747
▁beer	-10.7477
▁Le	-10.748
▁assistan	-10.7506
ee	-10.7513
▁Henr	-10.7519
▁Way	-10.7527
▁Bar	-10.7533
▁analys	-10.7534
▁93	-10.7541
▁accuse	-10.7547
▁rebel	-10.7549
▁plea	-10.757
O	-10.7572
employment	-10.7578
yard	-10.7579
venue	-10.7581
▁Consumer	-10.7583
▁conversation	-10.7583
▁defeat	-10.7583
▁Budget	-10.7583
▁testimon	-10.7583
▁constant	-10.7583
▁element	-10.7583
▁stuff	-10.7583
▁phase	-10.7583
andhi	-10.7583
▁redeem	-10.7583
▁retreat	-10.7583
▁Merk	-10.7583
▁pump	-10.7584
▁FDA	-10.7584
▁Little	-10.7584
▁Barney	-10.7584
▁sluggish	-10.7585
▁River	-10.7585
samer	-10.7585
▁Commercial	-10.7585
▁Asset	-10.7586
▁subcommittee	-10.7587
▁1960	-10.7587
▁skill	-10.7587
▁McDon	-10.7589
▁outcome	-10.7589
▁appointment	-10.759
▁raw	-10.7593
▁Gov	-10.7593
▁Compani	-10.7595
▁Old	-10.7595
▁Coke	-10.7596
▁machinery	-10.76
▁300-	-10.7607
▁deny	-10.761
▁participate	-10.7613
▁Blooming	-10.7616
▁suggestion	-10.7617
▁historical	-10.7618
▁arms	-10.7619
▁choose	-10.7619
▁actor	-10.7624
▁unexpected	-10.7624
▁dial	-10.7626
▁bare	-10.7628
▁2009	-10.7629
▁circuit	-10.763
ATE	-10.7632
▁Alexand	-10.7632
▁wire	-10.7636
▁organized	-10.7639
▁Boy	-10.7646
▁corner	-10.7649
▁valu	-10.7651
▁5.9	-10.7651
▁row	-10.766
▁son	-10.7665
▁Hi	-10.7681
▁tin	-10.7683
ank	-10.7684
erton	-10.7686
▁sea	-10.769
ai	-10.7696
▁oppos	-10.7703
.03	-10.7722
▁Rosen	-10.7733
▁Gor	-10.7738
mont	-10.7745
con	-10.7746
.06	-10.7749
cope	-10.775
▁standing	-10.7763
ke	-10.7793
▁writing	-10.7793
▁seize	-10.7803
▁leas	-10.781
▁87	-10.7815
▁rely	-10.7819
▁advis	-10.783
za	-10.7831
▁pitch	-10.7844
▁stoo	-10.7848
▁chair	-10.7849
,500	-10.787
pping	-10.7886
▁3.7	-10.7894
Donald	-10.7906
▁circulat	-10.791
▁meant	-10.7915
▁Jacobs	-10.7917
▁Ho	-10.7923
▁Angel	-10.7925
▁reading	-10.7925
▁loose	-10.794
▁Any	-10.7943
▁prohibit	-10.7945
▁withdraw	-10.7947
▁govern	-10.7947
ankruptcy	-10.795
troller	-10.7953
uotron	-10.7953
▁RICO	-10.7953
▁behavior	-10.7953
▁disagree	-10.7953
▁consequence	-10.7953
▁Kennedy	-10.7953
▁Organization	-10.7953
▁Chief	-10.7953
▁automobile	-10.7954
rban	-10.7954
▁Senator	-10.7954
corp	-10.7954
▁Italian	-10.7954
▁intent	-10.7954
▁contest	-10.7955
▁Block	-10.7955
▁reset	-10.7956
▁vary	-10.7958
▁conviction	-10.796
▁donation	-10.7965
▁judgment	-10.7969
▁Alaska	-10.7969
▁grain	-10.7969
AGE	-10.7971
▁rent	-10.7972
▁Human	-10.7975
▁regain	-10.7975
▁Israeli	-10.7975
▁factory	-10.7975
▁component	-10.7978
▁1995	-10.7979
▁suburb	-10.7986
▁Hav	-10.7988
▁urban	-10.7988
tti	-10.7988
▁transferr	-10.7998
▁Eagle	-10.8005
▁rid	-10.8007
▁spin	-10.8009
▁considerabl	-10.801
▁7.7	-10.8021
▁7.6	-10.8028
CIA	-10.8032
▁Lead	-10.8038
jo	-10.8041
▁telling	-10.8044
▁Berk	-10.8045
▁durable	-10.8046
▁Ri	-10.8046
ino	-10.8049
▁mayor	-10.8072
▁5.5	-10.8077
▁declar	-10.8081
fer	-10.8086
piece	-10.8087
ix	-10.8089
▁imp	-10.8092
class	-10.8099
▁port	-10.81
▁consent	-10.8118
cher	-10.8121
▁Cable	-10.8134
▁spoke	-10.8152
▁Stevens	-10.8152
▁franchisee	-10.8161
top	-10.8164
▁survive	-10.8166
ogg	-10.8167
▁Transport	-10.8176
▁Day	-10.8187
▁explorat	-10.8217
quer	-10.8223
▁committ	-10.8229
▁bi	-10.823
drive	-10.8231
UA	-10.8233
▁postpone	-10.8253
▁7.9	-10.8287
▁citizens	-10.8297
ung	-10.8312
ural	-10.8317
▁Environmental	-10.8327
▁Rica	-10.833
▁Meri	-10.8332
▁danger	-10.8337
▁Social	-10.8337
\	-10.8338
▁absorb	-10.8338
▁collateral	-10.8338
▁troop	-10.8338
▁Minneapolis	-10.8338
▁discontinu	-10.8338
▁Second	-10.8338
▁straight	-10.8338
▁departure	-10.8338
▁smoke	-10.8338
▁Nichol	-10.8338
▁smooth	-10.8338
▁Tennesse	-10.8338
▁Leban	-10.8338
▁implication	-10.8339
▁CFC	-10.834
▁Bethle	-10.8341
▁Ash	-10.8341
▁ruble	-10.8341
▁coast	-10.8342
▁INC	-10.8343
▁speculator	-10.8343
▁Klein	-10.8343
▁expenditure	-10.8343
▁suspension	-10.8343
▁prevail	-10.8344
▁outlet	-10.8344
▁reward	-10.8344
▁setback	-10.8345
▁oust	-10.8362
▁quotation	-10.8363
▁duty	-10.8364
▁enforce	-10.8369
ul	-10.8371
▁kid	-10.8373
▁assign	-10.8377
▁Jose	-10.8377
per	-10.838
▁transform	-10.8383
▁missile	-10.8384
▁path	-10.8384
▁objective	-10.8385
tra	-10.8387
▁alter	-10.839
▁102	-10.839
▁winner	-10.8392
▁Shell	-10.8398
▁liquid	-10.8406
▁mart	-10.841
▁mission	-10.8411
▁friends	-10.8411
fusion	-10.8415
ichi	-10.8424
▁Fees	-10.8428
ality	-10.8433
bel	-10.8441
▁forc	-10.8441
▁bitter	-10.8449
▁body	-10.8453
AF	-10.8457
▁cite	-10.8462
work	-10.8477
GN	-10.8487
ebor	-10.8494
mi	-10.8506
▁Final	-10.8506
▁Pin	-10.8522
▁Anders	-10.8533
easing	-10.8533
▁Bal	-10.8535
style	-10.8544
ure	-10.855
▁van	-10.8553
bridge	-10.8555
▁PC	-10.8565
istic	-10.8574
▁quot	-10.8577
▁Ball	-10.8578
OR	-10.8579
ING	-10.8581
▁Mer	-10.8586
▁underwrit	-10.8593
▁exception	-10.8596
▁disappoint	-10.8613
▁enact	-10.8617
un	-10.8618
▁acre	-10.8624
▁Mon	-10.8659
pover	-10.8665
ark	-10.8672
▁Sha	-10.8673
▁multi	-10.8673
▁maint	-10.868
▁tone	-10.8686
▁liberal	-10.8701
em	-10.8702
▁Island	-10.8703
ber	-10.8704
▁78	-10.8706
▁Dal	-10.8715
▁length	-10.8723
nold	-10.8726
▁Bi	-10.8728
▁bloc	-10.8731
▁Spanish	-10.8738
▁agricultur	-10.8738
▁frustrat	-10.8738
▁vulnerab	-10.8738
▁hurricane	-10.8738
▁Panamanian	-10.8738
▁legislature	-10.8738
▁Tiger	-10.8738
▁plaintiff	-10.8738
▁ordinar	-10.8738
▁Gramm	-10.8738
▁expiration	-10.8738
▁precious	-10.8738
▁counterpart	-10.8738
opher	-10.8738
▁Proceed	-10.8738
▁reopen	-10.8739
▁sugar	-10.8739
▁council	-10.8739
▁Marina	-10.874
▁Hook	-10.874
▁favorite	-10.8742
▁Vietnam	-10.8744
▁petroleum	-10.8744
▁emotional	-10.8747
▁Limit	-10.8748
▁Corporat	-10.875
▁cooperative	-10.8751
▁enterprise	-10.8753
▁weather	-10.8754
Rudman	-10.8754
▁perception	-10.8754
▁assess	-10.8755
▁graphic	-10.8758
▁automatic	-10.8761
▁Stone	-10.8762
ich	-10.8762
▁admitted	-10.8767
▁luck	-10.8771
▁Asian	-10.8771
long	-10.8772
▁disappear	-10.8774
elegraph	-10.8774
▁visitor	-10.8777
▁steadi	-10.8779
▁Earl	-10.8779
▁motion	-10.8786
▁Will	-10.8789
▁freeway	-10.879
▁dress	-10.879
▁happ	-10.879
▁glass	-10.8792
ER	-10.8792
▁famous	-10.8796
owa	-10.8797
▁copie	-10.8799
▁complet	-10.8802
▁kne	-10.8802
▁Farmer	-10.8809
80	-10.8811
▁sand	-10.8811
▁Go	-10.882
▁8.4	-10.8821
▁6.7	-10.8825
▁20,000	-10.8825
▁entit	-10.883
▁wind	-10.8836
▁74	-10.8838
vard	-10.8839
▁shall	-10.884
▁del	-10.8851
▁Contras	-10.8851
▁topic	-10.8866
▁Jeffr	-10.8868
▁En	-10.8871
▁Dell	-10.8877
page	-10.8886
▁Az	-10.889
▁6.4	-10.8893
▁impose	-10.8898
bread	-10.89
▁195	-10.8903
▁surviv	-10.8909
abilit	-10.891
op	-10.8923
486	-10.8923
▁Pola	-10.8928
▁struggl	-10.8937
▁Sh	-10.8942
▁84	-10.8952
cost	-10.8955
▁winn	-10.8957
▁96	-10.8958
▁comp	-10.8961
▁sentiment	-10.8968
▁publishe	-10.8978
▁Pol	-10.8986
▁Lot	-10.8988
▁intention	-10.8993
▁die	-10.8995
attle	-10.9
▁argu	-10.9012
roid	-10.9017
▁Fin	-10.9018
▁pursu	-10.9021
▁leverage	-10.9023
▁marked	-10.9026
▁weigh	-10.9027
▁convince	-10.9032
▁Chi	-10.9046
.02	-10.9051
▁Pu	-10.9053
spective	-10.9058
isco	-10.906
itting	-10.906
▁Sta	-10.9063
90	-10.9067
▁Technolog	-10.9074
▁ice	-10.9078
▁entrepreneur	-10.9085
erto	-10.9098
▁investigat	-10.91
ification	-10.9104
ison	-10.9104
▁integr	-10.9107
▁harm	-10.9114
▁Lu	-10.9117
oll	-10.9119
▁dilut	-10.9121
.85	-10.9123
ore	-10.9126
mo	-10.9127
▁Steve	-10.9137
▁Bu	-10.9138
▁Dea	-10.9141
▁170	-10.915
▁emphasi	-10.9151
▁Brazil	-10.9154
▁Attorney	-10.9154
▁Club	-10.9154
▁Giuli	-10.9154
▁IMF	-10.9154
▁Statistic	-10.9154
▁milk	-10.9154
▁Texaco	-10.9154
▁jail	-10.9154
▁Spiel	-10.9154
▁Disney	-10.9154
▁receipt	-10.9155
▁lung	-10.9155
▁climat	-10.9155
▁Belgi	-10.9155
▁cease	-10.9155
▁motor	-10.9155
▁fruit	-10.9155
▁III	-10.9155
▁portray	-10.9155
▁Garden	-10.9155
▁academic	-10.9155
flot	-10.9155
▁Polish	-10.9155
▁dangerous	-10.9156
▁Franklin	-10.9156
▁Southwest	-10.9156
▁Allied	-10.9156
▁deduction	-10.9156
▁prosecution	-10.9157
▁lagg	-10.9158
▁execution	-10.9158
▁winter	-10.9158
▁calculation	-10.9159
▁Area	-10.9159
abul	-10.916
▁Harv	-10.916
▁Swedish	-10.9161
▁channel	-10.9163
▁investigator	-10.9165
▁raider	-10.9166
ILL	-10.9168
refore	-10.917
▁Terr	-10.9175
▁storm	-10.9182
▁250,000	-10.9182
-3	-10.9184
▁assessment	-10.9186
▁po	-10.9188
▁code	-10.9189
▁tire	-10.9189
▁welcome	-10.9189
DP	-10.9193
▁subsid	-10.9194
ration	-10.9197
▁Lone	-10.9197
▁Connecti	-10.92
▁broader	-10.9201
▁teacher	-10.9213
▁theme	-10.9215
Col	-10.9219
▁Tre	-10.9221
▁Sports	-10.9221
rance	-10.9228
▁await	-10.9265
▁accident	-10.9274
▁toll	-10.9275
performing	-10.9276
▁Ky	-10.9283
▁15,000	-10.9287
▁treaty	-10.9294
▁Corn	-10.93
outhern	-10.9301
▁refinanc	-10.931
oc	-10.931
▁packag	-10.9317
onald	-10.9322
plus	-10.9325
America	-10.9326
Trust	-10.934
industry	-10.934
worth	-10.9341
fire	-10.9343
▁scar	-10.9352
holder	-10.9353
▁Levin	-10.9358
▁Put	-10.9361
alph	-10.9366
▁Land	-10.9372
capped	-10.9383
▁20-	-10.9394
▁Plan	-10.94
cutting	-10.9407
hold	-10.9408
cquisition	-10.9409
▁Hast	-10.9409
he	-10.9417
aware	-10.9428
▁south	-10.9429
sels	-10.943
AN	-10.9433
▁Hills	-10.9434
▁Ted	-10.9437
▁odd	-10.9438
TE	-10.9445
▁band	-10.9446
▁ships	-10.9447
stone	-10.9447
ada	-10.945
▁8.0	-10.9454
▁terroris	-10.9456
▁integrated	-10.9458
20	-10.9461
▁feed	-10.947
ho	-10.948
sector	-10.949
▁prepar	-10.9506
▁141.	-10.9516
▁districts	-10.9537
▁marginal	-10.9548
▁ill	-10.9555
rich	-10.9556
▁Ral	-10.9557
om	-10.9566
Ves	-10.9568
▁sun	-10.957
▁mistake	-10.9575
ug	-10.9575
▁Capit	-10.958
▁Nev	-10.9582
▁HDTV	-10.9589
▁Mexican	-10.9589
▁affidavit	-10.9589
▁bureaucrac	-10.9589
▁conglomerate	-10.9589
▁Okla	-10.9589
▁recruit	-10.9589
▁Packwood	-10.9589
▁daughter	-10.9589
▁League	-10.9589
▁Picture	-10.9589
▁Result	-10.9589
▁carpet	-10.9589
▁compound	-10.9589
▁extensive	-10.9589
▁Midwest	-10.9589
▁IRA	-10.9589
▁leap	-10.959
▁assassination	-10.959
▁unfair	-10.959
▁sanction	-10.959
▁racial	-10.959
arpenter	-10.959
▁Evans	-10.959
▁Operating	-10.959
▁Total	-10.9591
▁tactic	-10.9591
▁draft	-10.9592
orient	-10.9593
ORT	-10.9593
▁Warren	-10.9593
▁compil	-10.9594
▁damp	-10.9596
▁judicial	-10.9596
▁incident	-10.9597
▁strain	-10.9601
▁replacement	-10.9604
▁complicate	-10.9608
ap	-10.9616
▁pack	-10.9621
▁schedul	-10.9623
▁Weis	-10.9625
▁Institution	-10.9625
▁calculate	-10.9629
▁tree	-10.9632
.10	-10.9638
▁define	-10.9638
▁loser	-10.9642
▁stepped	-10.9642
▁regulate	-10.9643
▁stabili	-10.9643
▁sa	-10.9651
▁Laborator	-10.9658
▁TW	-10.9662
▁border	-10.9665
▁green	-10.9667
▁decrease	-10.9674
▁iron	-10.9682
▁Lev	-10.9684
▁assembl	-10.9697
▁shak	-10.9698
▁exercis	-10.97
53	-10.9707
▁bribe	-10.9712
ied	-10.9716
▁Brus	-10.9726
▁Joe	-10.973
▁79	-10.9738
▁Gu	-10.9738
▁Near	-10.9739
▁taxable	-10.9739
sui	-10.974
▁journalist	-10.9762
▁88	-10.9765
▁Milt	-10.9777
hail	-10.9785
sponsor	-10.9791
▁225	-10.9793
system	-10.9795
▁Ke	-10.9797
grow	-10.9797
fare	-10.9797
ament	-10.98
fr	-10.9802
que	-10.9802
▁loyal	-10.9803
wing	-10.9808
14	-10.9813
run	-10.9815
▁uncertain	-10.9816
viation	-10.9819
▁9.5	-10.982
▁Kh	-10.9827
ador	-10.983
▁tour	-10.983
enzo	-10.9839
.08	-10.9856
na	-10.9856
▁81	-10.9857
:30	-10.9868
ppropriation	-10.9869
▁pledge	-10.9873
▁Moon	-10.9894
▁slate	-10.9894
▁Amo	-10.99
west	-10.9902
cor	-10.9919
35	-10.992
▁EST	-10.9925
▁bull	-10.9935
telligen	-10.9938
▁sha	-10.9948
▁promis	-10.9965
tting	-10.9967
zon	-10.9974
▁league	-10.9983
▁Eli	-11.0002
ival	-11.0004
▁formula	-11.0007
▁notion	-11.0009
▁describ	-11.002
▁Proc	-11.0021
▁Ask	-11.0025
▁incur	-11.0029
luster	-11.0033
▁Harr	-11.0034
▁consolidate	-11.0037
icious	-11.004
arliament	-11.0042
mperial	-11.0043
esolution	-11.0043
cribe	-11.0044
▁Earth	-11.0044
▁atmospher	-11.0044
▁Deloitte	-11.0044
▁Individual	-11.0044
▁Pharmaceutical	-11.0044
▁chamber	-11.0044
▁concession	-11.0044
▁jolt	-11.0044
▁juror	-11.0044
▁obstacle	-11.0044
▁unsuccessful	-11.0044
▁explanation	-11.0044
▁railroad	-11.0044
▁strict	-11.0044
▁Conservative	-11.0044
▁lunch	-11.0044
▁Garcia	-11.0044
▁terminal	-11.0044
▁turnaround	-11.0044
▁Vermont	-11.0044
▁illustrate	-11.0044
▁fiber	-11.0044
▁Honda	-11.0044
▁optical	-11.0044
▁Taylor	-11.0044
▁preference	-11.0045
▁conspirac	-11.0045
▁Northeast	-11.0045
▁Palo	-11.0045
▁Unlike	-11.0045
▁Katz	-11.0045
▁Antar	-11.0045
▁Network	-11.0045
▁belief	-11.0045
▁Lawyer	-11.0046
▁workstation	-11.0046
▁flaw	-11.0046
▁adult	-11.0047
▁Year	-11.0047
▁Lake	-11.0047
▁demonstration	-11.0048
rette	-11.0049
▁hint	-11.0049
▁hang	-11.005
▁Nix	-11.005
▁injunction	-11.005
▁PAPER	-11.005
▁church	-11.005
▁dual	-11.0051
▁crush	-11.0051
lson	-11.0052
▁remind	-11.0057
▁treasurer	-11.0058
▁taste	-11.0058
▁boss	-11.0061
▁fault	-11.0062
▁efficienc	-11.0062
▁duti	-11.0066
▁rejection	-11.007
math	-11.007
▁Marine	-11.0076
▁Safe	-11.0083
icon	-11.0083
▁electrical	-11.0089
▁Contra	-11.009
AND	-11.0092
▁Fres	-11.0094
PC	-11.0098
▁box	-11.0099
▁entry	-11.0106
vision	-11.0111
▁suitor	-11.0112
▁None	-11.0117
programming	-11.0119
uge	-11.0121
▁2.9	-11.0122
▁happening	-11.0124
▁Nash	-11.0126
▁restate	-11.0127
▁Christie	-11.0129
v	-11.0135
▁gathering	-11.0138
▁8.1	-11.0152
▁Alto	-11.0154
▁specialize	-11.0182
▁Plant	-11.0185
PA	-11.0196
▁specifi	-11.0206
▁preserve	-11.0216
▁commissioner	-11.0218
0.2	-11.0219
▁driver	-11.0227
▁definition	-11.0231
▁Glass	-11.0233
▁appare	-11.0247
precedent	-11.0251
▁AB	-11.026
stream	-11.0264
mail	-11.0268
ack	-11.0273
▁restricted	-11.0292
soft	-11.0293
ick	-11.0309
burn	-11.0318
▁restor	-11.0319
▁4.4	-11.0324
▁Shar	-11.0327
action	-11.0327
▁Ar	-11.0332
awa	-11.0337
goods	-11.0345
lready	-11.0348
.60	-11.0353
▁touch	-11.0354
ila	-11.0354
▁solve	-11.036
▁Sa	-11.036
holding	-11.0363
abin	-11.0368
▁happens	-11.0369
▁Vin	-11.0372
▁adjuster	-11.0377
▁mix	-11.0382
5.4	-11.0395
▁embarrass	-11.0395
45	-11.0398
uk	-11.0407
ternal	-11.0415
▁commodit	-11.0439
ini	-11.0441
▁Shan	-11.0444
ki	-11.0454
rop	-11.0455
plex	-11.0459
gate	-11.046
▁courts	-11.046
Prob	-11.0496
▁liquidat	-11.0497
▁Lock	-11.0508
▁disrupt	-11.0514
▁lean	-11.0516
etic	-11.0518
▁dog	-11.0518
ennial	-11.0519
▁Anheuser	-11.052
▁Container	-11.052
▁Dynamic	-11.052
▁Hospital	-11.052
▁Typical	-11.052
▁conversion	-11.052
▁temblor	-11.052
▁Egg	-11.052
▁absence	-11.052
▁tumor	-11.052
▁shrink	-11.052
▁Travel	-11.052
▁Chevron	-11.052
▁Diego	-11.052
acketeer	-11.052
▁catalog	-11.052
▁Filipino	-11.052
▁PRIME	-11.052
▁breath	-11.052
▁steal	-11.052
▁conclusion	-11.052
▁Utah	-11.052
▁petrochemical	-11.052
▁Denver	-11.052
▁circle	-11.052
▁Pem	-11.0521
▁bullish	-11.0521
▁beaut	-11.0521
▁staffer	-11.0522
▁stole	-11.0522
▁Recent	-11.0522
▁bug	-11.0523
▁sideline	-11.0523
▁impeach	-11.0524
▁stall	-11.0525
▁camera	-11.0525
▁Wright	-11.0525
▁disappointment	-11.0526
▁respondent	-11.0526
▁Ou	-11.0526
▁Mori	-11.0527
▁heft	-11.0527
▁Sandinista	-11.0527
▁cumulative	-11.0527
▁shuttle	-11.0527
▁Alex	-11.0527
DON	-11.0528
brough	-11.0529
▁Jackson	-11.0529
▁prominent	-11.053
▁Ree	-11.053
▁Clear	-11.0531
▁Tand	-11.0532
hi	-11.0532
▁instruction	-11.0535
▁absolute	-11.0535
▁useful	-11.0544
▁Sometime	-11.0547
BO	-11.0548
▁featur	-11.0559
teria	-11.056
▁bag	-11.0564
▁root	-11.0564
▁elder	-11.0565
▁wider	-11.0565
▁rain	-11.0568
10	-11.0575
▁foundation	-11.0576
▁punish	-11.0577
ize	-11.0579
▁Radi	-11.0579
raig	-11.0579
▁swell	-11.0584
▁Society	-11.0592
therland	-11.0592
ius	-11.0596
▁string	-11.0597
▁anger	-11.0602
▁democratic	-11.0602
vog	-11.0607
▁explor	-11.0611
ants	-11.0616
▁37.5	-11.0617
▁sum	-11.0621
▁nice	-11.0622
▁tower	-11.0625
nforcement	-11.0631
▁Hughe	-11.0635
▁execute	-11.0639
▁mergers	-11.0647
▁Bern	-11.065
▁witness	-11.0658
▁1.84	-11.0659
▁Let	-11.0663
▁Jay	-11.0666
▁9.6	-11.0669
ential	-11.0671
nk	-11.0678
.6	-11.0678
▁demonstrate	-11.0679
SC	-11.068
▁decades	-11.068
▁6.3	-11.0683
hannel	-11.0686
▁Burge	-11.069
▁Polic	-11.0695
▁becom	-11.0696
ional	-11.0696
0.3	-11.0707
cam	-11.072
audi	-11.0731
▁Dan	-11.0731
▁insur	-11.0733
live	-11.0734
▁7.3	-11.074
▁Trin	-11.0743
▁Ca	-11.0745
▁Van	-11.0751
ran	-11.0759
ips	-11.0763
Senate	-11.0771
▁9.8	-11.0779
▁Mah	-11.0787
DI	-11.0793
ouri	-11.0794
▁retir	-11.0803
▁Colo	-11.0817
▁matur	-11.0819
▁bread	-11.082
▁sport	-11.0825
▁inces	-11.0826
72	-11.0831
▁Bate	-11.0842
▁mature	-11.0844
consi	-11.0847
▁Boes	-11.0856
▁summ	-11.0856
▁1997	-11.0866
▁promot	-11.0873
▁8.8	-11.0878
▁Euro	-11.0881
▁86	-11.0901
▁Leg	-11.091
▁super	-11.0914
▁6.6	-11.0915
ood	-11.093
▁batter	-11.0938
▁Farm	-11.094
ip	-11.0943
▁sat	-11.0956
▁speculate	-11.0959
▁communit	-11.0963
ota	-11.0964
▁Roberts	-11.0964
standing	-11.0964
▁escape	-11.0965
▁command	-11.0965
▁failing	-11.0982
▁kick	-11.0984
▁jewel	-11.0984
▁distributor	-11.0987
▁Cam	-11.0987
arnings	-11.0989
▁Port	-11.1002
heid	-11.1003
▁Mini	-11.1004
nform	-11.1007
▁Advanc	-11.1009
▁grip	-11.101
▁Nu	-11.1014
▁repay	-11.1016
rative	-11.1019
▁COMM	-11.102
▁Agricultur	-11.102
▁Ku	-11.102
▁Chamber	-11.102
▁Church	-11.102
▁Volokh	-11.102
▁hybrid	-11.102
▁ozone	-11.102
ATO	-11.102
▁boast	-11.102
▁diminish	-11.102
▁implement	-11.102
▁agenda	-11.102
▁flood	-11.102
▁Field	-11.102
▁Geneva	-11.102
▁Economist	-11.102
▁talent	-11.102
▁radical	-11.102
▁Richmond	-11.102
▁Partnership	-11.102
▁Metro	-11.102
▁Roche	-11.102
▁legitimate	-11.102
▁Gerald	-11.102
▁Toshi	-11.1021
▁extension	-11.1021
▁pursuit	-11.1021
▁dictator	-11.1021
▁Christian	-11.1021
▁FHA	-11.1021
▁hardware	-11.1021
▁pork	-11.1021
▁Further	-11.1021
▁LON	-11.1021
▁backlog	-11.1021
▁Wash	-11.1021
▁lobbyist	-11.1022
▁idle	-11.1022
▁background	-11.1022
▁Fargo	-11.1023
▁Order	-11.1024
▁Benson	-11.1025
▁Lan	-11.1025
▁guess	-11.1026
▁prospective	-11.1026
▁Row	-11.1027
▁protein	-11.1027
▁bright	-11.1027
▁Hispanic	-11.1027
▁Merkur	-11.1028
▁indirect	-11.103
▁Banc	-11.1032
▁Stras	-11.1033
bok	-11.1034
▁mort	-11.1036
▁quota	-11.1036
▁Irvin	-11.1039
▁intellectual	-11.104
▁4.3	-11.1042
▁lowest	-11.1044
▁Blum	-11.1044
▁ethic	-11.1045
▁consorti	-11.1052
ITT	-11.1056
▁upper	-11.1056
▁Vic	-11.1057
▁practical	-11.1059
▁appearance	-11.106
▁invite	-11.1063
▁Roe	-11.1064
▁hair	-11.1074
▁Exch	-11.1075
▁angr	-11.1075
▁Matt	-11.1088
▁earth	-11.1094
▁Edis	-11.1096
▁doubl	-11.1103
OE	-11.1107
shelf	-11.1107
▁Ka	-11.111
▁Provi	-11.1111
tigation	-11.1113
▁sweeping	-11.1124
▁honor	-11.1125
▁Nige	-11.1132
ssembly	-11.1144
inch	-11.1144
▁Mil	-11.1154
pur	-11.1168
▁450	-11.1173
after	-11.1176
▁Finn	-11.1177
antil	-11.1186
raft	-11.1195
▁odds	-11.1199
▁Mad	-11.1205
▁Kennet	-11.1206
▁500-	-11.1216
dominant	-11.1219
▁Honey	-11.122
▁subsidi	-11.1223
▁worri	-11.1226
▁issuer	-11.1236
6.7	-11.1237
emel	-11.1246
▁grower	-11.1253
▁0.5	-11.1255
4.4	-11.1279
▁thank	-11.1279
folk	-11.1283
ade	-11.1295
choice	-11.1296
Communication	-11.1296
trial	-11.1296
model	-11.1297
street	-11.1297
Oct	-11.1298
door	-11.13
level	-11.1302
power	-11.1302
▁era	-11.1308
▁End	-11.1311
▁3.2	-11.1319
▁comed	-11.1335
▁revolution	-11.1342
.9	-11.1343
▁6.2	-11.1348
▁philosoph	-11.1353
.04	-11.1357
▁Gra	-11.1364
▁3\/	-11.137
▁Robins	-11.1381
war	-11.1387
ji	-11.139
▁influ	-11.1393
▁Unil	-11.141
▁negotiate	-11.142
case	-11.1421
▁guard	-11.1424
made	-11.1425
ile	-11.1435
▁8.7	-11.1447
▁compli	-11.1452
▁5.8	-11.1453
▁Kar	-11.1455
issan	-11.1468
▁Bri	-11.1473
▁privatiz	-11.1475
▁independen	-11.1484
▁ideal	-11.1485
▁jet	-11.1487
▁Lipp	-11.1494
▁Tim	-11.1496
▁Rose	-11.1507
bur	-11.1515
▁pen	-11.1517
▁disclos	-11.1519
▁sees	-11.1528
ris	-11.1529
▁Malaysia	-11.1529
▁detect	-11.1532
▁ambitio	-11.1539
unny	-11.1539
▁fr	-11.1539
▁truth	-11.1544
eth	-11.1544
▁Jew	-11.1545
▁liqu	-11.1546
aspar	-11.1546
▁Cowboys	-11.1546
▁Deposit	-11.1546
▁Education	-11.1546
▁Magazine	-11.1546
▁catastrophe	-11.1546
▁encouraging	-11.1546
▁maneuver	-11.1546
▁statute	-11.1546
▁tremendous	-11.1546
▁assurance	-11.1546
▁derivative	-11.1546
▁Keating	-11.1546
▁relax	-11.1546
▁holiday	-11.1546
▁Dozen	-11.1546
▁privilege	-11.1546
▁vigorous	-11.1546
▁diamond	-11.1546
▁Record	-11.1547
Mercury	-11.1547
▁combat	-11.1547
▁catastrophic	-11.1547
UND	-11.1548
▁Tower	-11.1548
▁steam	-11.1548
shita	-11.1548
Benz	-11.1549
▁fend	-11.1549
▁payroll	-11.155
▁Independent	-11.155
▁dark	-11.1551
▁alarm	-11.1551
▁stadium	-11.1551
▁asbestos	-11.1552
▁confrontation	-11.1552
▁Water	-11.1553
▁supervisor	-11.1553
▁disruption	-11.1553
▁technologi	-11.1554
▁Montreal	-11.1554
▁voluntar	-11.1554
▁cyclical	-11.1554
▁satellite	-11.1555
▁commuter	-11.1556
▁moo	-11.1556
▁1996	-11.1556
▁cri	-11.1556
▁Milan	-11.1557
▁baby	-11.1557
▁Iron	-11.1558
▁assure	-11.1558
▁Spring	-11.156
▁haunt	-11.156
▁stockholder	-11.156
▁indict	-11.1563
▁trimm	-11.1565
▁rep	-11.1565
▁Sak	-11.1565
▁Ta	-11.1567
part	-11.1568
▁establishment	-11.1572
ollar	-11.1574
▁attendant	-11.1577
▁Euroco	-11.1578
▁coin	-11.158
▁Min	-11.1581
▁Gamb	-11.1582
▁Cie	-11.1586
▁tighten	-11.1588
▁PS	-11.1592
▁omit	-11.1602
▁smoking	-11.1609
min	-11.1621
▁Cran	-11.1622
▁arrange	-11.1629
utsch	-11.1635
▁Has	-11.1636
▁poly	-11.1637
▁Gren	-11.164
▁equit	-11.1642
ancer	-11.1643
▁Value	-11.1644
DT	-11.1645
ON	-11.1649
la	-11.165
▁landing	-11.1651
▁Hy	-11.1656
ually	-11.1659
ERC	-11.1663
▁barr	-11.1664
▁consolidat	-11.1667
▁beef	-11.1673
mmons	-11.1675
non	-11.168
▁committe	-11.1683
come	-11.1683
▁Gate	-11.1686
▁occasional	-11.1702
▁convinc	-11.1704
▁cont	-11.1727
▁relieve	-11.1732
▁Sell	-11.1737
▁100-	-11.1738
deau	-11.1743
▁pop	-11.1749
▁5.4	-11.175
▁Mack	-11.1753
▁Su	-11.1753
▁Y	-11.1756
nson	-11.1758
▁Bonds	-11.1764
▁Sacr	-11.1767
ata	-11.1768
bro	-11.1774
ene	-11.1776
intervention	-11.1778
public	-11.178
enbaum	-11.1786
sides	-11.1789
▁5.2	-11.1794
ake	-11.1799
ocal	-11.1801
lie	-11.1801
▁unclea	-11.1804
oo	-11.1804
nick	-11.182
ana	-11.1827
▁stabilize	-11.1831
▁Members	-11.1832
▁decid	-11.1832
▁0.7	-11.1839
wear	-11.1841
purchase	-11.1844
exempt	-11.1845
▁polls	-11.1847
fold	-11.1849
people	-11.1853
▁5\/	-11.1864
drink	-11.1875
ubic	-11.1879
▁drawing	-11.188
▁Beer	-11.1881
ita	-11.1883
red	-11.1884
ue	-11.189
city	-11.1893
king	-11.1893
▁Chan	-11.1908
▁occasion	-11.1939
▁Kra	-11.194
▁Hoe	-11.1945
▁pictures	-11.195
▁Lab	-11.1968
▁rolling	-11.1978
▁Kan	-11.198
▁reasonabl	-11.1985
▁bondhold	-11.1989
▁Roug	-11.201
▁Advertis	-11.2015
▁quantit	-11.2019
▁Societ	-11.202
▁paint	-11.203
▁capitalist	-11.2034
▁breed	-11.2046
▁belong	-11.2052
test	-11.2063
▁83	-11.2069
▁panic	-11.2075
▁luc	-11.2078
vis	-11.2086
▁litera	-11.2093
▁Republic	-11.2097
▁teach	-11.2098
ina	-11.2101
achinist	-11.2102
▁bomb	-11.2102
▁Agnelli	-11.2102
▁Ciba	-11.2102
▁Graphic	-11.2102
▁Helmsley	-11.2102
▁Minpeco	-11.2102
▁desperate	-11.2102
▁gift	-11.2102
▁improper	-11.2102
▁pesticide	-11.2102
▁phenomen	-11.2102
▁proportion	-11.2102
▁tremor	-11.2102
▁vaccine	-11.2102
▁Consider	-11.2102
▁Engineer	-11.2102
▁buoy	-11.2102
▁drain	-11.2102
▁revamp	-11.2102
▁salarie	-11.2102
▁unnecessar	-11.2102
▁chunk	-11.2102
▁inevitabl	-11.2102
▁Exclud	-11.2102
▁shadow	-11.2102
▁Arkansas	-11.2102
▁adapt	-11.2102
▁gradual	-11.2102
▁Export	-11.2102
▁hamper	-11.2102
▁sister	-11.2102
▁Anthon	-11.2102
▁Hotel	-11.2102
▁desert	-11.2102
▁divert	-11.2102
▁Solidarity	-11.2102
▁Broker	-11.2102
▁Protection	-11.2102
▁steer	-11.2102
▁justifie	-11.2103
▁basketball	-11.2103
▁Falcon	-11.2103
▁debu	-11.2104
▁golf	-11.2104
▁instant	-11.2105
▁Fift	-11.2105
▁painful	-11.2105
▁meaning	-11.2105
▁evaluation	-11.2105
▁Look	-11.2106
▁tension	-11.2106
▁8.45	-11.2107
▁vow	-11.2107
▁aftershock	-11.2107
▁Yama	-11.2107
▁girl	-11.211
▁knowledge	-11.211
▁RU	-11.2112
▁pr	-11.2112
▁breach	-11.2112
nost	-11.2113
▁Space	-11.2114
▁1,500	-11.2116
▁dealership	-11.2118
▁sweeten	-11.2118
▁sick	-11.212
▁amend	-11.2121
▁crew	-11.2121
▁receivable	-11.2122
▁Yield	-11.2124
▁tariff	-11.2124
▁Dick	-11.2126
ni	-11.2126
▁Else	-11.2126
▁boat	-11.2126
▁Ska	-11.2127
▁Oak	-11.213
▁quit	-11.2137
▁Gru	-11.2141
▁Account	-11.2142
▁accommodate	-11.2144
▁negotiator	-11.2145
▁song	-11.215
▁spy	-11.2153
▁duck	-11.2154
▁Affairs	-11.2157
▁Buy	-11.2157
▁Mello	-11.2164
rofessional	-11.2169
▁penny	-11.2169
▁5.1	-11.2172
▁aluminum	-11.2176
▁publicity	-11.2177
▁floating	-11.2183
▁shore	-11.2185
▁soften	-11.2188
6.1	-11.2202
▁corrupt	-11.2202
▁Cor	-11.2204
▁Ro	-11.2214
▁communist	-11.2214
▁locate	-11.2219
▁Roh	-11.2222
▁Can	-11.2229
oil	-11.223
▁trick	-11.223
▁im	-11.2232
▁heads	-11.2233
▁Utilit	-11.2244
▁Ex	-11.2249
iko	-11.2258
heed	-11.2269
▁0.4	-11.2277
ansas	-11.2286
uso	-11.2287
▁7.4	-11.229
▁111	-11.2301
ERS	-11.2306
au	-11.2311
▁Opp	-11.2317
▁5.6	-11.2321
produc	-11.2327
▁exclude	-11.2331
▁Commod	-11.2336
fell	-11.2343
ome	-11.2351
▁provider	-11.2351
paid	-11.2357
▁substitute	-11.2357
then	-11.2361
▁Ric	-11.2368
▁object	-11.2371
▁Sil	-11.2375
▁stabiliz	-11.2385
ogue	-11.2391
nt	-11.2409
beat	-11.2413
▁gyrati	-11.2413
estle	-11.2413
ET	-11.2422
▁inch	-11.2429
century	-11.2439
friend	-11.244
dealer	-11.2441
▁62.5	-11.2441
strong	-11.2442
leading	-11.2442
dden	-11.2442
ig	-11.2445
phone	-11.2446
▁Don	-11.245
.23	-11.2452
roll	-11.2452
▁92	-11.2454
▁frame	-11.2454
ala	-11.2456
fluent	-11.2466
liance	-11.2472
▁violat	-11.2473
81	-11.2476
distance	-11.2481
▁Clar	-11.2486
▁prov	-11.2492
▁treasur	-11.2494
▁Par	-11.25
▁refin	-11.2516
iness	-11.2524
▁fun	-11.2529
▁Broad	-11.253
2.2	-11.2534
▁packaged	-11.2539
▁Carn	-11.2539
▁repeat	-11.2553
burg	-11.2555
po	-11.2556
ere	-11.2556
▁submit	-11.2558
aval	-11.2559
▁Sch	-11.2566
▁sweep	-11.2569
apped	-11.2585
▁gather	-11.2593
ping	-11.2598
erts	-11.2608
reach	-11.261
▁Pri	-11.2612
▁content	-11.2615
▁calculat	-11.2622
▁tradition	-11.2629
▁rational	-11.2637
▁symbol	-11.2645
9.8	-11.2646
tro	-11.2649
▁slip	-11.2653
▁Sass	-11.2654
▁Bever	-11.266
▁accelerat	-11.2662
▁island	-11.2675
▁Cuba	-11.2677
▁Rubi	-11.2684
.01	-11.2686
▁chart	-11.2686
▁born	-11.2687
▁Toky	-11.269
▁anxiet	-11.269
▁cholesterol	-11.269
▁dissident	-11.269
▁drove	-11.269
▁explosion	-11.269
▁soybean	-11.269
▁striking	-11.269
▁Temple	-11.269
▁cocoa	-11.269
▁computing	-11.269
▁discretion	-11.269
▁fierce	-11.269
▁latter	-11.269
▁Hoffman	-11.269
▁repeal	-11.269
▁Project	-11.269
▁deserve	-11.269
▁merit	-11.269
▁salary	-11.269
▁textile	-11.269
▁physician	-11.269
▁adverse	-11.2691
▁cotton	-11.2691
▁niche	-11.2691
▁Memori	-11.2691
▁random	-11.2691
▁province	-11.2691
▁unfortunate	-11.2691
▁introduction	-11.2691
▁unsettl	-11.2691
▁clothe	-11.2691
▁Richter	-11.2691
▁supermarket	-11.2691
▁burst	-11.2692
▁justify	-11.2692
Geig	-11.2692
▁OF	-11.2692
▁columnist	-11.2692
▁boiler	-11.2692
▁dinner	-11.2692
wich	-11.2693
▁enem	-11.2693
▁superior	-11.2693
▁plain	-11.2693
tachi	-11.2693
▁1969	-11.2694
▁stunn	-11.2694
▁excessive	-11.2695
▁Fitz	-11.2695
▁brick	-11.2695
▁consolidation	-11.2697
▁Neb	-11.2698
CC	-11.2698
▁precise	-11.2698
▁headline	-11.2698
▁registration	-11.2699
▁Given	-11.2699
1.9	-11.2699
▁immune	-11.27
oliday	-11.2702
▁strange	-11.2702
▁pile	-11.2704
▁Lex	-11.2704
▁installation	-11.2705
▁Frederic	-11.2706
finiti	-11.2707
▁Book	-11.2707
▁Cine	-11.2708
▁photograph	-11.271
▁RTC	-11.271
▁chemist	-11.2714
▁shelter	-11.2714
▁selection	-11.2715
▁gray	-11.2715
▁mega	-11.2715
▁Marv	-11.2716
▁arra	-11.2717
▁Along	-11.2718
▁revision	-11.2718
▁felon	-11.2722
▁Special	-11.2724
▁comfort	-11.2726
homa	-11.2726
gon	-11.2727
▁endors	-11.2729
▁forfeiture	-11.273
▁God	-11.2731
▁Kim	-11.2733
85	-11.2736
▁theft	-11.2736
▁clearance	-11.2738
▁rebuild	-11.2741
gart	-11.2741
▁fi	-11.2742
▁prediction	-11.2742
▁neck	-11.2745
▁tuition	-11.2745
▁leg	-11.2746
clothing	-11.2747
▁infect	-11.2755
▁finger	-11.2755
▁sour	-11.2758
▁Mor	-11.2764
▁150,000	-11.2767
▁forget	-11.2767
11	-11.2769
▁percent	-11.2773
▁consume	-11.2773
▁103	-11.2777
▁solicit	-11.2778
▁outsider	-11.2787
▁creation	-11.2789
pass	-11.2789
▁observe	-11.2806
.07	-11.2808
banking	-11.2809
etter	-11.281
▁glas	-11.2811
IAL	-11.2812
▁Flo	-11.2815
▁science	-11.2817
▁journal	-11.2818
15	-11.2826
▁Gould	-11.2829
▁Fre	-11.283
etta	-11.2831
▁roller	-11.2831
▁Cand	-11.2833
ron	-11.2836
▁bon	-11.2839
▁fo	-11.2842
▁Lion	-11.2843
▁translate	-11.2845
lew	-11.2854
ja	-11.2861
▁allege	-11.2861
Fed	-11.2861
▁Nation	-11.2862
.42	-11.2863
▁refugee	-11.2864
▁grounds	-11.2869
▁beneficiar	-11.2876
aver	-11.2876
avy	-11.2877
▁Walk	-11.2883
▁flash	-11.2907
▁depositor	-11.2908
▁boy	-11.2922
eta	-11.2929
▁Stockhol	-11.293
▁hide	-11.2941
ga	-11.2946
▁hall	-11.2947
story	-11.2953
regon	-11.2958
ager	-11.297
otic	-11.2979
cal	-11.2982
\/2	-11.2991
sight	-11.2999
▁engag	-11.3
▁Dem	-11.3003
▁Super	-11.3004
▁stream	-11.3017
▁designer	-11.3021
type	-11.3022
▁vision	-11.3022
▁terminate	-11.3033
▁mess	-11.3034
ep	-11.3042
▁exploit	-11.3046
▁Em	-11.3049
cry	-11.3062
wealth	-11.3062
court	-11.3066
group	-11.3067
▁bother	-11.3071
▁stone	-11.3074
▁pleas	-11.308
30	-11.3083
do	-11.3083
definition	-11.309
▁infringe	-11.3092
▁Metal	-11.3093
▁demonstrat	-11.3103
▁91	-11.3103
▁Jer	-11.3107
bed	-11.3119
port	-11.3124
625	-11.3134
ette	-11.3135
party	-11.3142
SE	-11.3145
▁replac	-11.3145
▁ball	-11.3146
▁hedge	-11.3146
99	-11.3151
▁exce	-11.3157
chi	-11.316
60	-11.3164
vi	-11.3173
ges	-11.3174
▁Bro	-11.3174
itz	-11.3175
shed	-11.3189
▁march	-11.3191
▁violen	-11.3196
▁0.9	-11.3199
6,000	-11.3202
▁Carol	-11.3204
nad	-11.3204
▁reinforce	-11.3214
lone	-11.3221
ulli	-11.3222
▁architect	-11.323
▁Fac	-11.3237
terest	-11.3242
fus	-11.3244
ether	-11.3251
▁evaluate	-11.3256
handler	-11.3258
▁satisfact	-11.3274
▁Ver	-11.3279
enfeld	-11.3286
▁listing	-11.3289
▁Ben	-11.3294
▁drag	-11.3297
▁environmentalis	-11.33
▁challeng	-11.3302
▁birth	-11.3305
▁convention	-11.3306
atrice	-11.3309
▁inner	-11.331
▁psycholog	-11.3314
▁Polit	-11.3314
4.3	-11.3315
▁Chevrolet	-11.3315
▁Representative	-11.3315
▁arbitrat	-11.3315
▁condemn	-11.3315
▁definite	-11.3315
▁incorrect	-11.3315
▁symptom	-11.3315
▁accompany	-11.3315
▁joke	-11.3315
▁territor	-11.3315
▁excuse	-11.3315
▁harvest	-11.3315
▁perestro	-11.3315
▁qualify	-11.3315
▁specify	-11.3315
▁constitute	-11.3315
▁gear	-11.3315
▁laptop	-11.3315
▁Irish	-11.3315
▁married	-11.3315
▁grocer	-11.3315
▁valid	-11.3315
▁supercomputer	-11.3315
▁female	-11.3315
▁mandatory	-11.3315
▁knight	-11.3315
▁Bancorp	-11.3316
▁vessel	-11.3316
▁comprehensive	-11.3316
▁drift	-11.3316
▁mild	-11.3316
▁fortune	-11.3316
▁Through	-11.3316
▁Seattle	-11.3316
▁interstate	-11.3316
▁insulin	-11.3317
▁Socialist	-11.3317
▁construct	-11.3317
▁Suisse	-11.3317
▁crunch	-11.3317
▁Bett	-11.3317
urich	-11.3317
▁Night	-11.3318
▁Game	-11.3318
▁Middle	-11.3318
▁Manila	-11.3319
▁smart	-11.3319
▁galler	-11.3319
▁shout	-11.332
▁REA	-11.332
▁Private	-11.3321
▁Guarantee	-11.3321
crof	-11.3321
▁coach	-11.3322
▁sample	-11.3322
▁Cab	-11.3323
▁Natural	-11.3324
▁transition	-11.3325
▁completion	-11.3325
▁homeowner	-11.3325
▁Municipal	-11.3326
gnos	-11.3326
▁overcome	-11.3327
▁literal	-11.3327
▁dependent	-11.3327
▁uncover	-11.3329
▁Rode	-11.333
▁Cuban	-11.3332
▁craz	-11.3334
▁physical	-11.3334
▁Building	-11.3335
▁Manager	-11.3337
▁fad	-11.3337
▁upset	-11.334
▁diversifi	-11.3341
▁inclin	-11.3341
▁fool	-11.3343
CO	-11.3347
▁Met	-11.3353
▁Femin	-11.3357
▁View	-11.3357
▁radi	-11.3358
▁overwhelming	-11.3359
▁Parker	-11.336
6.8	-11.336
nstitution	-11.3364
▁foresee	-11.3364
▁Walt	-11.3366
▁Venture	-11.3367
▁Iv	-11.3368
▁visibl	-11.3368
▁pall	-11.337
▁Rand	-11.3371
▁divers	-11.3372
▁stiff	-11.3374
▁Forest	-11.3374
▁fifth	-11.3374
▁bias	-11.3378
▁Hend	-11.3379
▁informal	-11.3383
ika	-11.3387
▁Pipe	-11.3387
▁Clark	-11.3387
▁advisor	-11.339
▁induce	-11.3392
thal	-11.3392
phy	-11.3396
▁cloud	-11.3408
▁Bruc	-11.3409
iston	-11.341
▁restraint	-11.3414
ipped	-11.342
▁shell	-11.3441
▁landscape	-11.3448
▁ideolog	-11.3455
▁minimal	-11.3457
▁saving	-11.3461
▁Ana	-11.3462
▁mandate	-11.3464
▁Ven	-11.3465
▁Cana	-11.3467
hung	-11.3468
▁leak	-11.3476
▁printer	-11.3478
tel	-11.3492
▁bounce	-11.3498
▁appreciate	-11.3505
▁pu	-11.3508
▁Tuc	-11.3508
ken	-11.3541
▁borrower	-11.3543
▁hero	-11.3544
▁protester	-11.3554
ION	-11.357
preciation	-11.3571
▁Byr	-11.358
ott	-11.3584
▁tout	-11.359
▁4.1	-11.3607
▁destructi	-11.3608
▁NF	-11.361
ong	-11.3624
▁6,000	-11.3639
▁Fort	-11.364
bon	-11.3656
▁Jerr	-11.3663
▁undermine	-11.3664
set	-11.3667
CH	-11.367
▁Col	-11.3671
building	-11.3679
▁flu	-11.3682
▁covert	-11.3685
ircuit	-11.3685
▁486	-11.3691
▁embrace	-11.3692
▁king	-11.3692
▁skin	-11.3704
iz	-11.3704
ub	-11.3705
▁experienc	-11.3706
center	-11.3711
collar	-11.3715
5.7	-11.3722
quote	-11.3724
▁billing	-11.3724
▁troubl	-11.3725
specifi	-11.3726
Contra	-11.3727
minute	-11.3732
Peters	-11.3733
train	-11.3735
ilities	-11.3735
▁congressm	-11.3742
▁Medica	-11.3746
▁9.7	-11.3751
guide	-11.3753
▁devote	-11.3754
▁Hambr	-11.3755
▁conclud	-11.3756
rage	-11.3761
▁vi	-11.3765
equity	-11.3778
gi	-11.3786
7.5	-11.3787
4.5	-11.3789
nted	-11.3797
▁tumble	-11.3801
26	-11.381
EPA	-11.3812
▁lure	-11.3823
-50	-11.3828
▁650	-11.3829
▁scam	-11.3843
TM	-11.3845
adjuste	-11.3849
18	-11.3854
▁chor	-11.3856
▁exceeding	-11.3858
ological	-11.3868
▁memo	-11.387
▁arrang	-11.3873
▁Pay	-11.3878
hink	-11.388
east	-11.3891
.66	-11.3893
▁notabl	-11.3901
going	-11.3909
▁109	-11.3911
hing	-11.3912
▁Pas	-11.3917
ny	-11.3917
usch	-11.3918
▁106	-11.3922
▁Dono	-11.3925
▁discriminat	-11.3931
▁beach	-11.3942
▁Benn	-11.3945
recurr	-11.3946
▁Hol	-11.3956
▁viru	-11.396
production	-11.3963
▁sweet	-11.3963
llent	-11.3972
echt	-11.3974
▁119	-11.3975
▁furni	-11.3978
▁Mat	-11.3979
RED	-11.398
▁drama	-11.3981
▁breaker	-11.3982
▁Mississippi	-11.3982
▁Similar	-11.3982
▁abrupt	-11.3982
▁constituent	-11.3982
▁fraudulent	-11.3982
▁helicopter	-11.3982
▁necessit	-11.3982
▁simultaneous	-11.3982
▁swift	-11.3982
▁twist	-11.3982
▁Consolidat	-11.3982
▁mushroom	-11.3982
▁guerrilla	-11.3982
quibb	-11.3982
▁Daimler	-11.3982
▁Follow	-11.3982
▁prosper	-11.3982
▁Previous	-11.3982
▁Program	-11.3982
▁bourbon	-11.3982
▁Abrams	-11.3982
▁Bryan	-11.3982
▁replie	-11.3982
▁shipyard	-11.3982
▁Bristol	-11.3982
▁disobe	-11.3982
▁implie	-11.3982
▁surrender	-11.3982
▁accurate	-11.3982
▁capabilit	-11.3982
▁Kingdom	-11.3983
▁magnetic	-11.3983
▁copyright	-11.3983
eligi	-11.3983
▁Where	-11.3983
▁champion	-11.3983
▁deregulat	-11.3983
dience	-11.3983
IMA	-11.3983
▁Genetic	-11.3983
▁guest	-11.3983
▁prolong	-11.3984
▁accomplish	-11.3984
▁empire	-11.3984
▁Wilson	-11.3985
▁rice	-11.3985
▁Issues	-11.3985
▁Holland	-11.3986
▁unload	-11.3986
▁7.90	-11.3987
▁Te	-11.3988
Duffie	-11.3988
ioneer	-11.3988
▁Peru	-11.3988
▁comic	-11.3988
▁Alfred	-11.3988
▁Grace	-11.3988
▁disturb	-11.399
▁outlay	-11.399
▁Personal	-11.3991
▁cheer	-11.3991
▁Rich	-11.3992
▁potato	-11.3992
▁cultural	-11.3992
▁shield	-11.3992
▁Sierra	-11.3992
▁fetch	-11.3992
▁1950	-11.3992
▁dust	-11.3992
▁admission	-11.3993
▁Texan	-11.3994
▁1998	-11.3995
▁Guz	-11.3997
▁clinical	-11.3997
▁CF	-11.4
▁dragg	-11.4002
▁nerve	-11.4003
▁87.5	-11.4006
▁epi	-11.4007
▁fulfill	-11.4009
▁transplant	-11.4009
▁please	-11.4009
▁examination	-11.401
▁College	-11.4012
▁Rican	-11.4017
▁manner	-11.4017
▁soil	-11.402
▁kron	-11.4022
▁Cities	-11.4026
▁script	-11.4027
▁pocket	-11.4027
▁Manc	-11.4028
▁proclaim	-11.4029
▁Antoni	-11.4029
uc	-11.403
fication	-11.4031
▁sixth	-11.4033
▁sil	-11.4034
face	-11.4036
▁NATION	-11.4043
▁Palestinian	-11.4045
▁Kerr	-11.4052
mbass	-11.4055
▁Rain	-11.4063
▁profile	-11.4063
▁explore	-11.4067
▁Ala	-11.4069
due	-11.408
tick	-11.408
quare	-11.4082
▁Russ	-11.4086
tory	-11.4086
▁arch	-11.409
buster	-11.4091
▁Bron	-11.4093
capitalization	-11.4094
▁battery	-11.4094
▁comply	-11.4103
2.1	-11.4106
▁doors	-11.4109
▁Late	-11.411
▁recording	-11.411
▁TR	-11.4111
▁intra	-11.4119
dge	-11.4126
mill	-11.414
▁Cooper	-11.4143
▁Winne	-11.4145
hook	-11.4145
▁25,000	-11.4145
1,000	-11.4147
▁buck	-11.4153
▁span	-11.4153
▁Ski	-11.4155
▁Mont	-11.417
tact	-11.417
▁deck	-11.4171
unt	-11.4188
irport	-11.4197
dson	-11.4201
hip	-11.4208
▁donat	-11.4216
▁Bud	-11.4232
▁east	-11.4232
erous	-11.424
ches	-11.4247
▁bold	-11.4258
1.2	-11.4265
han	-11.4267
▁examine	-11.4268
▁Chir	-11.4276
,400	-11.4281
lov	-11.4288
▁honest	-11.4295
▁exempt	-11.4295
▁thick	-11.4299
vas	-11.43
▁scrambl	-11.4303
▁0.6	-11.4307
▁scaled	-11.4309
▁135	-11.4313
tar	-11.4313
downs	-11.4314
▁pointed	-11.4319
▁estimat	-11.4326
nett	-11.4332
▁shoes	-11.4332
▁8.9	-11.4333
▁hate	-11.4357
maid	-11.437
▁Gre	-11.4374
▁Han	-11.438
▁posting	-11.4387
▁mile	-11.4391
▁recorder	-11.4392
mid	-11.4405
responsibilities	-11.4408
6.9	-11.4414
▁discourag	-11.4416
▁Event	-11.4418
▁tap	-11.4427
closed	-11.4435
lf	-11.4436
efficient	-11.4444
abortion	-11.4446
fat	-11.4447
▁incorporate	-11.4447
▁pose	-11.4452
3.9	-11.4453
▁Bon	-11.4463
▁pin	-11.4466
tcher	-11.4468
American	-11.4473
▁Fa	-11.4473
burgh	-11.4473
▁11.5	-11.4476
▁6.1	-11.4477
SI	-11.4491
og	-11.45
home	-11.4508
▁execut	-11.4511
▁Minne	-11.4516
mfor	-11.4522
▁Comp	-11.4523
away	-11.4525
dney	-11.4528
ah	-11.4534
▁marketer	-11.4537
▁prop	-11.4541
49	-11.4546
▁pain	-11.4574
▁delegati	-11.4576
▁8.6	-11.4581
nex	-11.4584
▁bearing	-11.4587
iff	-11.4588
▁spur	-11.4597
▁wis	-11.4608
ual	-11.4622
▁gambl	-11.4625
.77	-11.4627
WA	-11.4631
▁coat	-11.4634
▁tea	-11.464
▁Read	-11.4641
we	-11.4642
3.1	-11.4643
▁240	-11.4645
▁spare	-11.4646
nier	-11.4649
hills	-11.4649
▁Sher	-11.4654
turned	-11.466
nacle	-11.466
▁Play	-11.4668
▁Bros	-11.467
0.1	-11.468
▁Colombia	-11.4681
▁Shop	-11.4682
asualty	-11.4685
▁invent	-11.4685
▁achiev	-11.4688
▁Maz	-11.4691
▁recogni	-11.4693
▁classic	-11.4694
▁rail	-11.4695
▁Prince	-11.4696
▁Lauder	-11.4696
▁misrepresent	-11.4696
▁satisfy	-11.4696
▁unravel	-11.4696
▁Edelman	-11.4696
▁Louisiana	-11.4696
▁Mountain	-11.4696
▁administrator	-11.4696
▁chromosome	-11.4696
▁depict	-11.4696
▁genuine	-11.4696
▁hurdle	-11.4696
▁jitter	-11.4696
▁predecessor	-11.4696
▁rebate	-11.4696
▁regret	-11.4696
▁scuttle	-11.4696
▁unanimous	-11.4696
▁uniform	-11.4696
▁variation	-11.4696
▁volunteer	-11.4696
▁microprocessor	-11.4696
▁terribl	-11.4696
▁minicomputer	-11.4696
▁Pakistan	-11.4696
▁reckless	-11.4696
▁Exterior	-11.4696
▁Cranston	-11.4696
▁ballot	-11.4696
▁ocean	-11.4696
▁intimate	-11.4696
▁inadequate	-11.4696
▁petition	-11.4696
▁clerk	-11.4696
▁rigid	-11.4696
▁disorder	-11.4696
▁Rubber	-11.4696
▁Production	-11.4696
▁greenhouse	-11.4696
▁tab	-11.4697
▁curtail	-11.4697
▁Employee	-11.4697
IFIC	-11.4697
▁Schwarz	-11.4697
▁Sugarman	-11.4697
▁excit	-11.4697
▁deliberate	-11.4697
▁Worth	-11.4697
▁devise	-11.4697
▁Fried	-11.4697
▁outflow	-11.4697
arbide	-11.4697
ulu	-11.4698
▁impressive	-11.4698
▁LIB	-11.4698
▁laid	-11.4698
▁Kohl	-11.4698
▁spinoff	-11.4698
▁isolate	-11.4698
▁underst	-11.4699
▁fancy	-11.4699
▁balk	-11.4699
▁PWA	-11.47
▁royalt	-11.47
▁metro	-11.47
▁conspir	-11.47
▁highlight	-11.4701
▁anxious	-11.4701
▁solicitation	-11.4701
ko	-11.4702
▁Yale	-11.4702
▁inspector	-11.4702
▁tissue	-11.4702
▁Swede	-11.4702
▁overrid	-11.4703
▁collective	-11.4703
▁episode	-11.4703
▁objection	-11.4704
vale	-11.4704
▁Berg	-11.4704
▁Brew	-11.4705
▁sagg	-11.4705
▁pure	-11.4706
▁temperature	-11.4707
▁utiliz	-11.4707
▁evident	-11.4707
▁pencil	-11.4707
▁sedan	-11.4707
▁radar	-11.4707
▁pipe	-11.4708
▁bacteria	-11.4709
▁native	-11.471
▁Colombian	-11.4711
▁spott	-11.4711
▁Andrew	-11.4711
▁accumulat	-11.4714
▁shoot	-11.4716
▁interpretation	-11.4716
▁Thur	-11.4716
▁hole	-11.4718
▁earning	-11.4719
▁prize	-11.4725
▁13.1	-11.4725
▁sh	-11.4729
▁sleep	-11.4731
iful	-11.4733
▁Few	-11.4733
▁grave	-11.4734
▁Pro	-11.4741
▁worsen	-11.4742
▁downgrade	-11.4743
▁Guin	-11.4751
▁0.0	-11.4752
▁Blue	-11.4752
▁Fra	-11.4753
▁investigate	-11.4755
▁MO	-11.4762
▁athlete	-11.4764
nfortunate	-11.4765
▁athletic	-11.4769
▁fishing	-11.4774
▁fled	-11.4775
▁107	-11.4776
▁dry	-11.4776
▁expos	-11.4782
▁gun	-11.4782
▁Lesk	-11.4782
icki	-11.4788
▁youth	-11.4794
▁computeriz	-11.4794
▁wheel	-11.4794
7.7	-11.4798
▁1.15	-11.4804
▁carbon	-11.4805
▁7.98	-11.4807
▁lett	-11.4808
▁coordinate	-11.4811
▁monopol	-11.482
▁Bur	-11.4825
▁proof	-11.4828
▁cleaner	-11.4832
▁inspire	-11.4832
▁roadway	-11.4832
upert	-11.4839
▁IN	-11.4843
▁placement	-11.4845
1.5	-11.4862
▁performer	-11.4862
▁Are	-11.4864
pul	-11.4864
▁text	-11.4869
ignal	-11.4871
▁Ty	-11.4885
▁Ny	-11.4893
▁concentrat	-11.4899
ORE	-11.4903
▁capture	-11.4905
▁15.6	-11.4907
▁designate	-11.4913
enactment	-11.4919
▁erode	-11.4933
euser	-11.4935
▁underscore	-11.4944
▁qua	-11.4946
person	-11.4964
cean	-11.4976
▁Tai	-11.4979
▁upgrade	-11.4981
▁pessimist	-11.4985
4.2	-11.4991
ES	-11.4994
nation	-11.4995
▁Gree	-11.4997
our	-11.5003
▁camp	-11.5005
▁pe	-11.5008
▁modernize	-11.5013
▁Marl	-11.502
1.75	-11.5022
▁lesson	-11.5027
kem	-11.5027
▁194	-11.5035
▁160	-11.5038
cceptance	-11.5047
▁distance	-11.5047
pac	-11.5053
▁exo	-11.5056
▁supervis	-11.5058
▁pot	-11.5066
.88	-11.507
ridge	-11.5071
▁mental	-11.5072
jury	-11.5079
craft	-11.5087
65	-11.5092
light	-11.5094
fman	-11.5096
▁Add	-11.5098
▁9.4	-11.5114
▁ti	-11.512
uant	-11.5129
▁waive	-11.513
2.4	-11.5133
▁hi	-11.5135
▁AM	-11.5139
6.4	-11.5142
tery	-11.5148
▁CO	-11.5153
▁fines	-11.516
dall	-11.5169
nuts	-11.517
▁Berr	-11.5172
mile	-11.5175
▁vo	-11.5177
▁Clea	-11.518
solvent	-11.5193
uous	-11.5195
stat	-11.5196
▁finishe	-11.5197
conscious	-11.5199
violent	-11.5205
▁favorabl	-11.5207
bike	-11.5214
barrel	-11.5215
game	-11.5215
active	-11.5216
Canada	-11.5216
family	-11.5216
cancer	-11.5217
lawyer	-11.5218
fall	-11.522
▁wi	-11.5223
handed	-11.5226
▁Marc	-11.5239
amin	-11.524
▁230	-11.524
hand	-11.5248
disk	-11.5251
▁plot	-11.5253
rman	-11.5255
3.5	-11.5255
3.3	-11.5256
▁LO	-11.5257
▁woo	-11.5261
ology	-11.5263
▁yes	-11.5265
▁chas	-11.5267
▁scare	-11.5274
pound	-11.5278
▁475	-11.5282
rap	-11.5288
▁Inco	-11.5289
stick	-11.5294
▁forth	-11.5295
bert	-11.5297
▁clearing	-11.5297
itarian	-11.5297
ANCE	-11.5301
3.7	-11.5309
8.2	-11.531
ud	-11.5312
▁Hop	-11.532
▁str	-11.5322
▁sl	-11.5328
IP	-11.5332
▁rein	-11.5332
▁Tri	-11.5333
▁Kor	-11.534
itis	-11.5341
▁coordinat	-11.5343
nnualized	-11.5346
▁accompanie	-11.5347
▁siz	-11.5356
gas	-11.5367
star	-11.5375
▁restrain	-11.5376
▁fix	-11.5377
▁emphasize	-11.5391
▁Tra	-11.5396
worker	-11.5401
nner	-11.5406
▁Pear	-11.5409
nkel	-11.5413
ming	-11.5427
development	-11.5436
▁Found	-11.5437
gene	-11.5444
▁Tenn	-11.5446
▁micro	-11.5457
▁Ship	-11.5457
▁impress	-11.5458
▁Produc	-11.5458
▁Hawaii	-11.5459
▁sympath	-11.5462
▁habit	-11.5462
wort	-11.5463
mprehensive	-11.5464
minent	-11.5465
▁Afghanistan	-11.5465
▁Fernand	-11.5465
▁Hamilton	-11.5465
▁Portfolio	-11.5465
▁Reform	-11.5465
▁appliance	-11.5465
▁collaborat	-11.5465
▁distress	-11.5465
▁illustration	-11.5465
▁infrastructur	-11.5465
▁irresponsibl	-11.5465
▁platform	-11.5465
▁satisfie	-11.5465
▁verdict	-11.5465
▁Amsterdam	-11.5465
▁Calgary	-11.5465
▁Critic	-11.5465
▁neglect	-11.5465
▁wreck	-11.5465
▁Stuart	-11.5465
▁perceive	-11.5465
▁INTER	-11.5465
▁TRUST	-11.5465
▁cereal	-11.5465
▁harsh	-11.5465
▁nominal	-11.5465
▁dispatch	-11.5465
▁Somali	-11.5465
▁vendor	-11.5465
▁prestig	-11.5465
▁erupt	-11.5465
▁Shareholder	-11.5465
▁proxy	-11.5465
▁Vietnamese	-11.5465
▁exclusion	-11.5465
▁robot	-11.5466
▁discrepanc	-11.5466
▁Construction	-11.5466
▁western	-11.5466
▁audio	-11.5466
▁Dicta	-11.5466
▁abolish	-11.5466
▁authorization	-11.5466
ERT	-11.5466
▁Chug	-11.5466
▁Phil	-11.5466
▁Viol	-11.5467
▁wound	-11.5467
▁Investigation	-11.5467
▁newsprint	-11.5467
▁cabinet	-11.5467
▁Mercedes	-11.5467
▁Speaker	-11.5469
▁Grow	-11.5469
▁mineral	-11.547
▁exhibition	-11.547
▁vacation	-11.5471
▁snapp	-11.5471
▁impression	-11.5471
▁pair	-11.5472
▁Glenn	-11.5472
▁cement	-11.5472
▁brisk	-11.5472
▁trustee	-11.5473
▁mall	-11.5473
▁notifi	-11.5473
▁Master	-11.5474
▁repayment	-11.5474
▁scarce	-11.5475
NEY	-11.5475
oral	-11.5475
▁builder	-11.5477
▁Explo	-11.5477
▁fastest	-11.5478
▁Knight	-11.5478
▁Fall	-11.548
▁tall	-11.5482
▁robber	-11.5482
▁142	-11.5485
suppressor	-11.5485
▁BPC	-11.5486
▁Michel	-11.5487
▁plate	-11.549
garet	-11.549
,600	-11.5491
▁alert	-11.5491
▁mayoral	-11.5494
▁Note	-11.5494
▁Maur	-11.5494
▁Oh	-11.5494
▁justice	-11.5495
▁2003	-11.5495
▁presiden	-11.5496
▁diplomat	-11.5496
▁universal	-11.5497
▁Koch	-11.5497
▁Mutual	-11.5497
▁Import	-11.5497
ppon	-11.5498
lay	-11.5498
erha	-11.5498
▁12.4	-11.5498
▁Take	-11.55
▁allocation	-11.5501
▁CM	-11.5502
▁accelerate	-11.5503
▁145	-11.5508
▁Get	-11.5514
auld	-11.5517
aden	-11.5517
▁Drey	-11.5518
▁Burt	-11.5518
▁worm	-11.5518
▁prescription	-11.5519
▁Montgo	-11.5519
▁seal	-11.552
▁statistical	-11.5524
▁outline	-11.5527
▁franchiser	-11.5531
▁vacanc	-11.5534
▁accountant	-11.5534
▁Plann	-11.5538
7.8	-11.5539
▁denomination	-11.5539
▁measurement	-11.554
▁tempt	-11.554
ater	-11.5541
▁Au	-11.5546
23	-11.5554
xin	-11.5557
inum	-11.5562
▁Cole	-11.5562
▁7.96	-11.5563
▁resemble	-11.5563
▁Yu	-11.5569
▁outperform	-11.5569
▁proven	-11.5576
▁Bio	-11.5583
▁casualty	-11.5589
▁wipe	-11.5589
emissions	-11.5595
▁utter	-11.5596
▁entitle	-11.5604
▁blast	-11.5607
▁entrepreneurs	-11.5608
▁parliamentar	-11.5613
▁Stoll	-11.5617
▁characterize	-11.5618
▁Miner	-11.563
7.2	-11.5633
▁pac	-11.5638
uist	-11.564
aire	-11.5642
nea	-11.5643
▁Sid	-11.5643
▁Prospect	-11.5645
▁plung	-11.5645
▁cough	-11.5653
▁Barba	-11.5655
ge	-11.5656
▁Roth	-11.5661
print	-11.5661
ev	-11.5665
8.8	-11.5668
▁Ara	-11.567
▁mo	-11.5672
▁bay	-11.5673
▁container	-11.5674
ax	-11.5681
▁subsidize	-11.5684
▁identit	-11.5687
▁BANK	-11.5688
▁Arabia	-11.5689
▁dub	-11.5692
etrie	-11.5704
RM	-11.5707
▁seeming	-11.5709
▁premier	-11.5726
▁deni	-11.5732
▁10.5	-11.5751
▁craft	-11.5751
mar	-11.5757
68	-11.5757
▁hook	-11.5762
▁materialize	-11.5762
ographic	-11.5771
▁discourage	-11.5777
▁streamlin	-11.5779
▁155	-11.5779
▁Rubens	-11.5787
orf	-11.5793
izab	-11.5794
▁Fair	-11.5794
▁pan	-11.5797
▁gen	-11.5797
▁socialist	-11.5808
▁dism	-11.5817
▁5.7	-11.5818
▁interfere	-11.5825
▁Globe	-11.5826
qua	-11.5833
▁Circu	-11.584
,900	-11.5847
iation	-11.5848
▁cooperate	-11.5854
▁touris	-11.5855
bi	-11.5858
▁Rama	-11.5861
▁lawn	-11.5868
EP	-11.5883
▁graduate	-11.5886
ehl	-11.5887
▁traveler	-11.5889
▁Garr	-11.5907
uez	-11.5907
unda	-11.5907
▁scramble	-11.5907
▁10.4	-11.591
▁ink	-11.5927
union	-11.5927
▁rubb	-11.5934
im	-11.5935
lake	-11.5942
ped	-11.5946
▁Bou	-11.595
▁Ode	-11.5952
▁Jo	-11.5956
▁Sei	-11.5964
IE	-11.5974
bit	-11.5974
36	-11.5979
stitution	-11.5987
venture	-11.5988
▁aspir	-11.6001
▁Barre	-11.6025
▁13.8	-11.6025
▁Victor	-11.6028
▁CALL	-11.6029
horn	-11.603
operat	-11.6033
load	-11.6036
▁pale	-11.6036
unch	-11.6036
▁ag	-11.6039
▁beneficia	-11.6039
minus	-11.6043
view	-11.6045
casino	-11.6046
language	-11.6047
payment	-11.6048
drug	-11.6049
forward	-11.605
computer	-11.605
company	-11.605
Soviet	-11.6051
chief	-11.6054
▁witnesse	-11.6058
char	-11.6058
▁observ	-11.6058
plann	-11.6061
▁Pel	-11.6061
0.7	-11.6075
▁Minn	-11.608
▁recycl	-11.608
▁880	-11.6089
▁stag	-11.6095
fast	-11.6105
▁Ja	-11.6105
▁negotia	-11.6109
▁lo	-11.611
boy	-11.6122
▁Carr	-11.6123
▁Shi	-11.6127
ntel	-11.613
▁cook	-11.6132
rated	-11.6132
electronics	-11.6132
▁tenu	-11.6136
orough	-11.6138
▁NI	-11.6144
▁laugh	-11.6146
▁Sand	-11.6153
▁interi	-11.6159
ork	-11.6164
▁CS	-11.6166
▁6.8	-11.6166
7.1	-11.6172
▁reluctan	-11.6179
▁nav	-11.618
oma	-11.618
.46	-11.6187
▁recogniz	-11.6188
▁Pf	-11.6192
6.3	-11.6201
ivision	-11.6209
wa	-11.6211
▁cheat	-11.6223
1.6	-11.6227
7.9	-11.6234
▁identi	-11.6241
if	-11.6245
▁Ever	-11.6246
▁scrutin	-11.6248
▁DIS	-11.625
▁rac	-11.6257
tier	-11.6258
ovo	-11.6266
▁persisten	-11.6267
▁teen	-11.6267
▁Charl	-11.6269
▁imagine	-11.627
▁Aust	-11.6273
▁float	-11.6279
▁custom	-11.6279
▁invit	-11.628
▁Ginn	-11.6282
▁fabric	-11.6283
▁NEW	-11.6284
▁Arb	-11.6284
enzie	-11.6286
▁grab	-11.6289
▁confront	-11.629
▁scrap	-11.6291
▁vacat	-11.6293
▁undis	-11.6295
nference	-11.6296
royal	-11.6296
▁Francis	-11.6297
ordan	-11.6297
▁lag	-11.6298
▁trim	-11.6298
▁179	-11.6298
RES	-11.6298
▁ASSOCIAT	-11.6299
▁Barclay	-11.6299
▁Campbell	-11.6299
▁Indianapolis	-11.6299
▁Nugget	-11.6299
▁Schroder	-11.6299
▁Semiconductor	-11.6299
▁clutter	-11.6299
▁debacle	-11.6299
▁divestiture	-11.6299
▁gloom	-11.6299
▁horizon	-11.6299
▁medicine	-11.6299
▁procedural	-11.6299
▁reservation	-11.6299
▁Jeep	-11.6299
▁bushel	-11.6299
▁inherit	-11.6299
▁Spiegel	-11.6299
▁cushion	-11.6299
▁intensify	-11.6299
▁river	-11.6299
▁Retire	-11.6299
▁fluctuation	-11.6299
▁initiate	-11.6299
▁diversify	-11.6299
▁parallel	-11.6299
▁Axa	-11.6299
▁reckon	-11.6299
▁Stoltz	-11.6299
▁hinder	-11.6299
▁Academ	-11.6299
▁Owen	-11.6299
▁seizure	-11.6299
▁warehouse	-11.6299
▁mystery	-11.6299
▁Relations	-11.6299
▁Benj	-11.6299
▁earmark	-11.6299
▁psychological	-11.6299
▁PepsiCo	-11.6299
▁Lexington	-11.6299
▁Thrift	-11.6299
▁foster	-11.6299
▁Olympic	-11.6299
▁Family	-11.63
▁Leonard	-11.63
▁smell	-11.63
▁substance	-11.63
▁testify	-11.63
▁offensive	-11.63
randa	-11.63
▁notebook	-11.63
▁Princeton	-11.63
▁roof	-11.63
▁echo	-11.63
▁Activity	-11.63
▁pioneer	-11.6301
ogic	-11.6301
▁Cambria	-11.6301
▁shutdown	-11.6301
▁republic	-11.6302
AS	-11.6302
▁misstate	-11.6302
▁chlor	-11.6302
▁disciplin	-11.6302
▁lens	-11.6302
llate	-11.6302
▁1930	-11.6303
▁revival	-11.6303
PLO	-11.6303
▁Title	-11.6303
▁insulat	-11.6304
▁tale	-11.6305
▁courtroom	-11.6305
▁breakdown	-11.6306
▁innovation	-11.6306
▁scrapp	-11.6307
▁Charleston	-11.6307
▁bottle	-11.6308
▁exhaust	-11.6308
DY	-11.6308
▁realistic	-11.6309
▁Gene	-11.6309
▁Pitts	-11.6309
▁decent	-11.6309
▁appe	-11.6309
▁Battle	-11.631
▁Fult	-11.631
▁imbalance	-11.6311
▁dynamic	-11.6312
▁encounter	-11.6312
▁cataly	-11.6314
▁prospectus	-11.6314
▁Fosset	-11.6315
▁specializ	-11.6317
▁105	-11.6317
▁1.86	-11.6318
▁Bert	-11.6319
▁detector	-11.6319
▁fertilizer	-11.6321
▁Lorin	-11.6322
▁soldier	-11.6324
▁Barn	-11.6325
▁extract	-11.6326
▁DES	-11.6327
▁cre	-11.6327
▁spurr	-11.6328
ailing	-11.6328
▁expression	-11.6329
▁Assembly	-11.6329
▁calm	-11.633
▁correction	-11.6332
▁ramp	-11.6333
▁leather	-11.6333
▁oat	-11.6334
▁visual	-11.6335
▁2001	-11.6335
▁cater	-11.6336
▁singer	-11.6336
fledg	-11.6339
ress	-11.6339
▁Cree	-11.6341
Ponce	-11.6342
▁contemplat	-11.6346
▁presentation	-11.6347
▁compensate	-11.6348
▁Marsh	-11.6352
▁performing	-11.6355
▁grade	-11.6355
▁inflate	-11.6356
▁distort	-11.6356
▁Braw	-11.6356
▁dance	-11.6356
▁1.04	-11.6359
▁McL	-11.6359
▁architectur	-11.6368
▁plat	-11.6368
▁laboratory	-11.6369
▁readi	-11.6375
▁Patt	-11.6377
▁speculat	-11.6385
▁deferr	-11.6387
unting	-11.6388
▁candy	-11.639
29	-11.6391
▁speaker	-11.6395
▁Gau	-11.6402
▁relevan	-11.6402
▁scholar	-11.6403
▁rental	-11.6404
earnings	-11.6405
onetary	-11.6408
▁reconsider	-11.6409
▁opt	-11.6416
▁meat	-11.6427
▁haul	-11.6428
mma	-11.643
▁Wil	-11.6434
▁reuni	-11.6441
▁Gray	-11.6443
▁lab	-11.6444
87	-11.645
pin	-11.6451
▁processor	-11.6453
▁1,0	-11.6454
▁60,000	-11.6455
order	-11.6458
oursel	-11.6464
ek	-11.6465
til	-11.6468
▁hesitat	-11.6472
▁discriminati	-11.6474
lace	-11.6475
CIAL	-11.6476
NT	-11.6477
.38	-11.6484
▁du	-11.6486
.48	-11.6487
▁expose	-11.6489
ibbe	-11.649
▁Jona	-11.6494
▁desir	-11.6494
▁shoulder	-11.6506
▁underwrite	-11.6516
▁Cara	-11.6521
investment	-11.6526
0.5	-11.6527
argo	-11.6529
▁Kais	-11.6537
4.9	-11.6549
ashi	-11.6561
▁Ge	-11.6561
▁reinvest	-11.6562
RC	-11.6568
▁175	-11.6568
▁141.9	-11.6571
▁minus	-11.6577
EC	-11.6578
atra	-11.6586
▁cooperat	-11.6587
▁9.9	-11.6598
▁congress	-11.6608
▁alleg	-11.6615
▁ho	-11.6621
▁m	-11.6623
mery	-11.6625
▁Nat	-11.6628
▁fragil	-11.6628
▁Lind	-11.664
▁Pi	-11.6643
▁hung	-11.6643
My	-11.6653
mman	-11.6654
▁Crow	-11.6655
named	-11.6656
▁lad	-11.6665
▁1.83	-11.6669
▁planet	-11.6672
hart	-11.6676
wer	-11.6679
rook	-11.668
OLL	-11.6683
▁Ch	-11.669
▁therap	-11.6691
▁9.3	-11.6703
▁hid	-11.6704
tie	-11.6708
▁wine	-11.6709
▁Bloc	-11.672
parti	-11.673
▁accru	-11.6733
▁shipper	-11.6735
▁pi	-11.6739
ension	-11.6746
bound	-11.6748
che	-11.675
▁heel	-11.6754
qui	-11.6769
▁af	-11.6775
lle	-11.6776
▁Ref	-11.6777
▁flower	-11.6791
▁Wi	-11.6798
square	-11.6806
ica	-11.6807
▁hail	-11.6812
.39	-11.6812
▁Bra	-11.6815
▁Blo	-11.682
yder	-11.6824
ARS	-11.6825
▁digit	-11.6826
▁1.0	-11.6832
▁Eric	-11.6833
▁photos	-11.6843
▁distribut	-11.6845
tice	-11.6848
low	-11.6851
▁Mul	-11.6856
▁Wal	-11.6857
nas	-11.6858
▁Bat	-11.6859
▁mediat	-11.687
dding	-11.6877
ART	-11.6885
▁Town	-11.689
▁Jeff	-11.6895
ked	-11.6898
▁Grant	-11.6899
hy	-11.69
▁Hans	-11.6904
rand	-11.6905
▁sw	-11.6906
born	-11.6914
omo	-11.692
▁ver	-11.6926
eek	-11.6927
▁beside	-11.693
4.8	-11.6937
can	-11.6945
BANK	-11.6949
buck	-11.6951
rik	-11.6953
ground	-11.6953
▁bail	-11.6954
freight	-11.6955
trans	-11.6957
crime	-11.6958
capacity	-11.6958
Stock	-11.6959
area	-11.6959
brand	-11.6959
crash	-11.696
availab	-11.696
bach	-11.696
▁Ki	-11.6962
step	-11.6962
▁intervene	-11.6987
ethyl	-11.6994
▁Scot	-11.6997
dwin	-11.6997
▁rec	-11.7005
▁edg	-11.7007
mel	-11.701
rude	-11.7028
cular	-11.7034
amble	-11.7034
0.4	-11.7035
mendment	-11.7036
▁Chris	-11.7048
IC	-11.7048
▁exporter	-11.705
La	-11.705
OT	-11.7054
oper	-11.7062
▁Fujis	-11.7067
▁Bir	-11.708
▁Ore	-11.708
▁tip	-11.7082
lude	-11.7085
,200	-11.7086
▁consult	-11.7087
▁clou	-11.709
regulat	-11.709
▁Lip	-11.7091
adium	-11.7093
▁yard	-11.7097
▁pa	-11.7105
▁Vol	-11.7109
▁lin	-11.7111
▁Ark	-11.7117
itter	-11.712
▁Bonn	-11.7121
rake	-11.7129
▁antibod	-11.7129
▁Sava	-11.7133
IGN	-11.7137
▁Ton	-11.714
▁hunt	-11.714
▁refer	-11.7141
▁Cup	-11.7156
▁mini	-11.7156
ag	-11.7158
▁Kei	-11.7165
▁Gel	-11.7167
▁farms	-11.717
lzer	-11.717
▁damag	-11.7177
NES	-11.7179
ider	-11.7179
78	-11.719
▁Cambodia	-11.7192
cus	-11.7193
atellite	-11.7193
▁ridicul	-11.7194
▁profession	-11.7196
▁librar	-11.7198
ellular	-11.7198
▁112	-11.7198
▁Direct	-11.72
▁toxic	-11.72
▁bullet	-11.7201
▁exhibit	-11.7202
ut	-11.7203
▁alien	-11.7205
BB	-11.7206
.79	-11.7207
▁correspond	-11.7207
uin	-11.7208
lluminat	-11.7208
▁subsidiz	-11.7208
ewoo	-11.7208
▁Jupiter	-11.7208
▁jurisdiction	-11.7208
disproportionate	-11.7208
▁Adviser	-11.7208
▁Afghan	-11.7208
▁Appeal	-11.7208
▁Assurance	-11.7208
▁Catholic	-11.7208
▁Charlotte	-11.7208
▁Friend	-11.7208
▁Universal	-11.7208
▁Venezuela	-11.7208
▁bellwether	-11.7208
▁confiscat	-11.7208
▁constituenc	-11.7208
▁credential	-11.7208
▁deficienc	-11.7208
▁enthusiasm	-11.7208
▁evolution	-11.7208
▁gesture	-11.7208
▁spawn	-11.7208
▁synthetic	-11.7208
▁technician	-11.7208
▁furrier	-11.7208
▁scream	-11.7208
▁Film	-11.7208
▁Popular	-11.7208
▁clue	-11.7208
▁semiannual	-11.7208
▁annuit	-11.7208
▁gridlock	-11.7208
▁spouse	-11.7208
▁mechanism	-11.7208
▁Fisher	-11.7208
▁unwilling	-11.7208
▁Citizen	-11.7208
▁extort	-11.7208
▁concert	-11.7208
▁nickname	-11.7208
▁Civil	-11.7208
niversa	-11.7208
▁Measure	-11.7208
▁vague	-11.7208
▁synd	-11.7208
ertussi	-11.7208
▁Foster	-11.7208
▁contrar	-11.7208
▁dignit	-11.7208
▁diversification	-11.7208
▁refocus	-11.7208
▁Schering	-11.7208
▁deplet	-11.7208
▁proponent	-11.7208
▁defraud	-11.7208
▁generous	-11.7208
▁Negotia	-11.7208
▁infant	-11.7208
▁Simp	-11.7208
▁Jean	-11.7208
▁Review	-11.7208
▁devaluation	-11.7208
▁testifie	-11.7208
▁museum	-11.7209
EMA	-11.7209
▁rocket	-11.7209
▁Hess	-11.7209
▁spun	-11.7209
▁harbor	-11.7209
▁kidney	-11.7209
▁cafe	-11.7209
yonnais	-11.7209
▁Brazilian	-11.7209
▁Takeover	-11.7209
▁unhapp	-11.7209
▁preced	-11.7209
▁creature	-11.7209
▁awful	-11.7209
▁Winter	-11.721
▁generic	-11.721
▁reference	-11.721
▁tenant	-11.721
▁Anglo	-11.721
▁ruin	-11.721
▁clause	-11.721
▁trash	-11.721
▁spell	-11.7211
▁dull	-11.7211
▁differ	-11.7211
▁grim	-11.7211
▁disposable	-11.7212
▁Burling	-11.7212
▁celebration	-11.7212
▁hyper	-11.7212
ecogni	-11.7213
▁Nobel	-11.7213
▁wrapp	-11.7213
▁injection	-11.7213
▁Lease	-11.7213
▁Strip	-11.7214
▁Woman	-11.7214
▁Concern	-11.7214
▁Silver	-11.7214
▁Glaz	-11.7215
▁reinforcement	-11.7215
▁reversal	-11.7215
▁Rome	-11.7215
▁Treat	-11.7215
▁exemption	-11.7216
▁Eight	-11.7216
▁compell	-11.7216
▁compact	-11.7216
shar	-11.7218
▁clash	-11.7218
YN	-11.7219
▁reput	-11.7219
▁Wom	-11.722
▁heighten	-11.7222
▁Gib	-11.7222
▁13.4	-11.7222
▁Adm	-11.7222
▁jacket	-11.7222
▁technological	-11.7222
▁installment	-11.7223
▁Iranian	-11.7224
▁TRO	-11.7225
▁waiver	-11.7225
▁drought	-11.7226
▁innocent	-11.7226
▁nast	-11.7226
▁solo	-11.7226
▁enthusiastic	-11.7227
▁unknown	-11.7227
▁Mine	-11.7228
mith	-11.7228
▁stripped	-11.7229
hack	-11.7229
▁inflow	-11.7229
OFFE	-11.7232
▁passive	-11.7232
▁topple	-11.7236
▁Six	-11.7238
▁delegate	-11.724
ues	-11.724
▁examiner	-11.7241
▁rig	-11.7242
▁Steppe	-11.7242
▁2008	-11.7243
▁Watson	-11.7247
6.6	-11.7247
▁ranch	-11.7248
▁peddl	-11.7249
▁representation	-11.7249
▁1.85	-11.7249
▁Stud	-11.725
▁tendenc	-11.7251
0.25	-11.7255
▁Generale	-11.7257
iffer	-11.7258
▁reconcil	-11.7261
▁forgot	-11.7263
▁brewer	-11.7265
▁Blai	-11.7266
▁chapter	-11.7267
▁devastating	-11.7267
▁soul	-11.7269
▁Simon	-11.7269
wart	-11.727
ERR	-11.727
▁82	-11.7273
▁appeti	-11.7273
▁afterward	-11.7274
▁Keen	-11.7275
▁Spence	-11.7275
ump	-11.7305
-10	-11.7305
use	-11.7308
deck	-11.7308
▁remarkabl	-11.7309
▁Cair	-11.7311
▁10.1	-11.7312
▁Wyo	-11.7312
▁Bre	-11.7316
▁beta	-11.7317
5.3	-11.7321
▁riders	-11.7323
▁brac	-11.7323
▁tanker	-11.7323
▁rat	-11.7328
BM	-11.7331
▁interior	-11.7331
▁Wilm	-11.7336
▁dol	-11.7338
▁capitalize	-11.7346
mp	-11.7346
▁sway	-11.7349
▁Share	-11.7352
▁Ahma	-11.7355
pr	-11.7358
ubb	-11.7363
▁broaden	-11.7363
▁mir	-11.7365
▁coating	-11.7367
SIT	-11.7376
▁gut	-11.7376
▁gin	-11.7378
NC	-11.7383
bun	-11.7383
▁analyze	-11.7385
ric	-11.7386
▁dip	-11.7387
▁parental	-11.7388
sburg	-11.7388
▁empt	-11.7398
illing	-11.7399
▁deductible	-11.7404
works	-11.7405
rais	-11.7408
cz	-11.7409
▁10.6	-11.7415
▁fighter	-11.7418
▁tag	-11.742
▁maximiz	-11.7427
▁550	-11.7438
▁0.8	-11.744
nic	-11.7441
▁Poll	-11.7449
▁EPO	-11.7449
borne	-11.745
bart	-11.7456
▁Og	-11.746
▁1.12	-11.746
▁sp	-11.7461
uay	-11.747
appoint	-11.7471
eur	-11.7481
▁Kelly	-11.7484
nheim	-11.7486
IA	-11.7488
▁Media	-11.7495
▁wel	-11.75
▁13.6	-11.75
irming	-11.7502
▁Citi	-11.7502
▁dilute	-11.7508
elevision	-11.7517
▁Wedd	-11.7531
▁Arno	-11.7539
0.6	-11.754
▁surg	-11.7541
▁pet	-11.7543
▁photo	-11.7554
▁Soh	-11.7555
vo	-11.7574
rous	-11.7575
arco	-11.7595
fill	-11.7605
▁weapon	-11.7606
▁plu	-11.7607
▁Fol	-11.7624
▁Soo	-11.7625
▁skid	-11.7626
▁Iver	-11.763
vine	-11.7649
.76	-11.7652
▁FOR	-11.7664
67	-11.767
lent	-11.7675
▁Wach	-11.7675
▁revoke	-11.7678
▁Lin	-11.7683
NL	-11.7702
▁Pet	-11.7714
▁Financi	-11.7716
▁violent	-11.7718
FL	-11.7724
▁reformer	-11.7727
▁hedg	-11.7731
va	-11.7738
▁dia	-11.7741
lash	-11.7757
bot	-11.7758
rian	-11.7759
▁Glob	-11.7759
ghu	-11.7763
ight	-11.7764
▁Tru	-11.7768
▁cure	-11.7769
▁dedicat	-11.7772
3.8	-11.7773
pression	-11.7776
uis	-11.7779
▁bust	-11.7796
▁Pr	-11.7797
▁Kre	-11.78
Scan	-11.7806
▁80-	-11.7826
▁preserv	-11.7829
even	-11.7837
2.5	-11.7844
▁Guard	-11.7845
▁360	-11.785
oya	-11.7864
▁Ann	-11.7867
nalytical	-11.7869
7.4	-11.7874
8.3	-11.7876
▁19.6	-11.7877
bu	-11.7884
▁Eu	-11.7887
▁Shares	-11.7891
▁Week	-11.7894
▁sponsors	-11.7916
▁Kid	-11.7917
elect	-11.7937
▁12.9	-11.7937
8.7	-11.7938
ccidental	-11.7947
▁9.2	-11.7947
trade	-11.7954
nder	-11.7955
fashion	-11.7957
▁Fle	-11.7958
currency	-11.7959
bill	-11.796
generation	-11.796
government	-11.796
country	-11.796
EPO	-11.7961
spoke	-11.7962
number	-11.7962
growth	-11.7964
account	-11.7964
tique	-11.7965
RE	-11.7966
▁mon	-11.7968
▁Gall	-11.7968
3.2	-11.797
rival	-11.797
▁lesser	-11.7971
ph	-11.7976
ents	-11.7984
tered	-11.7984
▁guil	-11.7985
▁prob	-11.7987
toric	-11.7993
ral	-11.7995
authorize	-11.8001
eath	-11.8001
bo	-11.8008
▁Vis	-11.8009
▁sight	-11.8015
▁Spe	-11.8016
000	-11.8018
▁measur	-11.802
utomotive	-11.8035
▁fraction	-11.8053
built	-11.8059
relations	-11.806
▁Anti	-11.808
▁organ	-11.8086
consum	-11.8087
▁gainer	-11.8088
oria	-11.8095
▁115	-11.8098
elief	-11.8101
▁acknowledg	-11.8105
▁cal	-11.8111
oise	-11.8112
▁vacan	-11.8118
▁Manufactur	-11.8118
▁Ron	-11.8119
▁sue	-11.812
▁persist	-11.8125
▁laborator	-11.8125
▁memori	-11.8126
▁sweat	-11.8128
▁Non	-11.8133
▁Publish	-11.8133
inches	-11.8136
850	-11.8139
ib	-11.8141
▁historic	-11.8143
itude	-11.8146
terior	-11.8154
uck	-11.8154
▁confesse	-11.8171
nik	-11.8174
aux	-11.8175
▁bo	-11.8179
▁Kum	-11.8183
▁Auto	-11.8186
ware	-11.8186
▁clinic	-11.8187
▁industrialize	-11.8188
▁VA	-11.8189
kai	-11.8192
▁minds	-11.8192
▁Dodge	-11.8192
▁Edd	-11.8194
tain	-11.8194
igna	-11.8194
ROD	-11.8198
▁disar	-11.82
▁demon	-11.8201
▁possess	-11.8201
▁televis	-11.8202
▁trap	-11.8202
fou	-11.8203
▁excite	-11.8206
▁hazard	-11.8206
federation	-11.8207
COUNT	-11.8208
▁salmon	-11.8208
Plough	-11.8208
sulfur	-11.8208
▁Advisor	-11.8208
▁Agricol	-11.8208
▁Clinton	-11.8208
▁Gutfreund	-11.8208
▁Hiroshi	-11.8208
▁Instrument	-11.8208
▁Wertheim	-11.8208
▁adversar	-11.8208
▁artificial	-11.8208
▁blunt	-11.8208
▁ethnic	-11.8208
▁flavor	-11.8208
▁jealous	-11.8208
▁jumbo	-11.8208
▁neutron	-11.8208
▁orchestra	-11.8208
▁outweigh	-11.8208
▁pawn	-11.8208
▁resilienc	-11.8208
▁spectacular	-11.8208
▁supplement	-11.8208
▁tabloid	-11.8208
▁turbine	-11.8208
▁upheaval	-11.8208
▁widow	-11.8208
▁Dresdner	-11.8208
▁IPO	-11.8208
▁assault	-11.8208
▁drastic	-11.8208
▁endorsement	-11.8208
▁Shield	-11.8208
▁horrible	-11.8208
▁trough	-11.8208
▁Vanguard	-11.8208
▁jetliner	-11.8208
▁lecture	-11.8208
▁modification	-11.8208
▁Hammack	-11.8208
▁multinational	-11.8208
iewi	-11.8208
▁Insurer	-11.8208
▁Metromedia	-11.8208
▁Rapid	-11.8208
▁mirror	-11.8208
▁multimillion	-11.8208
▁unfavorabl	-11.8208
▁Beebe	-11.8208
▁loud	-11.8208
▁Harbor	-11.8208
▁Cypr	-11.8208
▁nursing	-11.8208
▁Sherwin	-11.8208
▁embryo	-11.8208
▁Jamaica	-11.8208
▁prescribe	-11.8208
▁blanket	-11.8208
▁salvage	-11.8208
▁glor	-11.8208
▁airplane	-11.8208
▁Fleet	-11.8208
bvious	-11.8208
▁stagger	-11.8208
▁HOME	-11.8208
▁Exper	-11.8208
▁dubious	-11.8208
▁evacuat	-11.8208
▁etc	-11.8208
▁newcomer	-11.8208
▁Large	-11.8208
▁turf	-11.8208
▁denounc	-11.8208
▁profound	-11.8209
arriage	-11.8209
▁prudent	-11.8209
-1990	-11.8209
▁mural	-11.8209
▁unique	-11.8209
▁pegg	-11.8209
▁distinctive	-11.8209
▁thrust	-11.8209
▁fantas	-11.8209
ometer	-11.8209
▁Salina	-11.8209
▁magn	-11.8209
▁funnel	-11.821
▁Staff	-11.821
▁Krasno	-11.821
▁Light	-11.821
▁Schaef	-11.821
▁conform	-11.8211
▁prepayment	-11.8211
▁Scottish	-11.8211
▁advertisement	-11.8211
▁chao	-11.8211
rome	-11.8211
▁boring	-11.8211
▁conceal	-11.8211
▁translation	-11.8212
▁unifie	-11.8212
▁diplomatic	-11.8213
▁Montedis	-11.8213
▁civilian	-11.8213
▁sketch	-11.8213
▁vital	-11.8213
useum	-11.8214
▁recreational	-11.8214
▁dash	-11.8214
▁thwart	-11.8214
▁legend	-11.8215
▁thorough	-11.8215
▁ESP	-11.8215
▁fitness	-11.8215
▁ASS	-11.8216
etus	-11.8218
▁Shaw	-11.8218
▁Chev	-11.8218
▁snag	-11.8218
▁provok	-11.8218
▁MIP	-11.8219
▁Highland	-11.8219
▁2,500	-11.822
▁outrage	-11.8223
▁slim	-11.8225
▁Crown	-11.8226
rath	-11.8226
▁1.19	-11.8226
▁neat	-11.8227
▁Hal	-11.8228
▁Lars	-11.8228
▁Mera	-11.8229
ohl	-11.823
▁Former	-11.8231
▁Nine	-11.8237
▁notification	-11.8239
▁deriv	-11.8239
▁Need	-11.8242
▁1.23	-11.8243
▁Parent	-11.8244
▁Erb	-11.8245
ejian	-11.8245
▁Mura	-11.8246
▁Figure	-11.8246
▁endure	-11.8248
▁Gross	-11.8248
ob	-11.8249
endar	-11.8249
tibo	-11.8249
▁convenience	-11.825
▁unemploy	-11.825
▁loosen	-11.8251
▁collector	-11.8253
▁manipulation	-11.8253
▁bell	-11.8254
▁sinking	-11.8254
▁seventh	-11.8255
▁launder	-11.8255
▁bicycle	-11.8255
▁Pace	-11.8256
▁artery	-11.8257
▁understate	-11.826
▁pun	-11.826
▁Hunter	-11.8261
will	-11.8264
leak	-11.8272
▁Moo	-11.8273
▁hopeful	-11.8275
3.4	-11.8284
▁muscle	-11.8284
IB	-11.8284
▁Odd	-11.8285
▁Libert	-11.8285
retta	-11.8285
▁spre	-11.8286
▁je	-11.8286
▁inject	-11.8288
▁ACC	-11.8288
ancy	-11.8292
▁bowling	-11.8294
▁inspect	-11.8295
uick	-11.8298
▁Aria	-11.8301
▁penn	-11.8302
▁Mead	-11.8302
▁7.93	-11.8303
▁Gr	-11.8308
erg	-11.8309
▁gallon	-11.8311
oro	-11.8314
▁Roll	-11.8319
▁Case	-11.8319
▁generat	-11.832
1.22	-11.8321
▁Ram	-11.8327
gum	-11.8331
▁insert	-11.8333
▁stroke	-11.8335
▁classifie	-11.8335
▁arena	-11.8337
▁rack	-11.8343
eman	-11.8346
▁Brun	-11.8346
vin	-11.8348
▁Wild	-11.835
▁13.5	-11.8354
▁fed	-11.8356
▁Junk	-11.8358
▁40-	-11.8361
▁Advertiser	-11.8369
BS	-11.8371
▁lighter	-11.8379
▁Lowe	-11.8383
▁evaluat	-11.8385
▁arbitrager	-11.8386
▁bore	-11.8386
▁spurt	-11.8387
▁EM	-11.8389
▁Tu	-11.8389
▁Wald	-11.839
▁bird	-11.8394
▁Guy	-11.8397
▁Petro	-11.8403
▁experimental	-11.8404
▁skier	-11.8412
dura	-11.8412
▁funn	-11.8417
▁bound	-11.8417
pat	-11.842
▁pig	-11.8425
▁14-	-11.8429
▁Lyon	-11.843
Donnell	-11.8431
anni	-11.8431
kon	-11.8435
ders	-11.8453
▁update	-11.8453
net	-11.8454
▁10.3	-11.8454
▁ab	-11.8458
▁payout	-11.8474
▁annualized	-11.8474
pel	-11.8476
ete	-11.8479
▁embarrassing	-11.8482
▁8.32	-11.8483
EW	-11.8484
bay	-11.8487
itman	-11.8488
idge	-11.8489
▁Sco	-11.8489
▁mut	-11.849
scru	-11.8493
▁Scienti	-11.8495
rise	-11.8498
▁Dale	-11.8514
baum	-11.8514
▁shed	-11.8518
▁spec	-11.8529
8.5	-11.8531
▁Lauren	-11.8534
8.4	-11.8563
ock	-11.8565
lance	-11.8567
giv	-11.857
▁diabet	-11.8577
▁shopper	-11.8582
anque	-11.8586
.27	-11.859
▁viab	-11.8596
▁Mak	-11.8597
pt	-11.8598
▁Schwar	-11.8598
▁Camp	-11.8599
▁Mother	-11.8604
.43	-11.8618
lion	-11.8619
EO	-11.8625
var	-11.8631
ipper	-11.8632
▁Appli	-11.8634
▁reader	-11.8647
HO	-11.8673
seek	-11.8677
▁fac	-11.8687
▁nose	-11.8712
▁stra	-11.8719
▁reap	-11.8723
ps	-11.8729
▁ob	-11.873
375	-11.8731
wave	-11.8736
nut	-11.8766
▁middlem	-11.8772
6.2	-11.8776
oun	-11.8778
▁14.6	-11.8785
▁Tas	-11.8787
iller	-11.8798
▁folks	-11.88
▁spa	-11.8803
▁licens	-11.8805
nnie	-11.8805
▁Pit	-11.8814
try	-11.8814
▁minorit	-11.8816
ving	-11.8824
▁Flu	-11.8839
▁Len	-11.8843
▁Ve	-11.8844
▁Esse	-11.8856
▁1.835	-11.8858
▁Les	-11.886
▁470	-11.8861
chemical	-11.8867
▁Lord	-11.8868
1.1	-11.8876
▁streamline	-11.8876
▁52-	-11.888
front	-11.89
▁Ali	-11.89
plan	-11.89
▁deprive	-11.8903
urst	-11.8908
▁stressed	-11.891
▁Bel	-11.8915
▁brush	-11.8918
▁donate	-11.8936
word	-11.8936
EU	-11.8944
▁268	-11.8944
bear	-11.8946
▁advanc	-11.8951
▁cur	-11.8963
wit	-11.897
wo	-11.8975
hit	-11.8979
▁Rud	-11.898
▁24-	-11.8981
ttle	-11.8983
12	-11.8983
mes	-11.8985
▁Beau	-11.8986
mlin	-11.8999
leans	-11.9003
fi	-11.9005
mur	-11.9007
,800	-11.9011
lman	-11.9013
▁loom	-11.9024
▁injury	-11.9029
ku	-11.9046
capital	-11.9047
▁blam	-11.905
cock	-11.9057
look	-11.9058
▁1.57	-11.9058
▁Bol	-11.9059
drum	-11.9063
welcome	-11.9065
consolidate	-11.9066
election	-11.9066
equivalent	-11.9067
popular	-11.9069
resistan	-11.9069
ABC	-11.9069
rating	-11.9069
normal	-11.9069
1970	-11.9069
benefit	-11.907
volume	-11.907
takeover	-11.907
isch	-11.9072
health	-11.9072
Bank	-11.9074
sufficient	-11.9075
billion	-11.9077
again	-11.9081
▁organiz	-11.9085
firm	-11.9087
▁Sor	-11.9087
rbert	-11.9091
▁BR	-11.9095
stake	-11.9099
▁Maxi	-11.9101
limited	-11.9112
▁Cens	-11.9127
olly	-11.9133
▁185	-11.9134
pa	-11.9136
▁amaz	-11.9139
ssistant	-11.9146
▁CB	-11.9146
▁Duk	-11.9154
007	-11.9154
▁SH	-11.9159
▁commit	-11.9161
▁Ami	-11.9167
▁Anne	-11.9172
ept	-11.9177
ennan	-11.9178
▁Alt	-11.9179
▁scholars	-11.918
termediate	-11.9186
,100	-11.9188
▁purchaser	-11.9196
eventh	-11.9196
season	-11.9197
▁choos	-11.9204
EASUR	-11.9208
uclear	-11.9211
▁Sus	-11.9215
▁Oma	-11.9219
nell	-11.9224
ogel	-11.9226
▁Av	-11.9238
▁energ	-11.924
arsk	-11.9241
zk	-11.9242
▁Custom	-11.9249
size	-11.925
wick	-11.9254
▁folk	-11.9257
mate	-11.9262
▁allocate	-11.9271
▁FM	-11.9273
▁Tel	-11.9281
▁Schul	-11.9282
enna	-11.9286
▁149	-11.9289
▁Dill	-11.9291
▁Includ	-11.9293
▁Franco	-11.9295
lysis	-11.93
iron	-11.93
▁prosecut	-11.9303
merica	-11.9307
cientific	-11.9308
▁buri	-11.931
denominat	-11.9312
hai	-11.9313
▁commute	-11.9313
▁pollut	-11.9314
ampa	-11.9314
▁convene	-11.9314
▁presum	-11.9314
▁freeze	-11.9314
▁Ov	-11.9315
▁blo	-11.9315
▁Consult	-11.9316
▁Torri	-11.9317
mund	-11.9319
▁blank	-11.9319
▁unrest	-11.9319
▁Egypt	-11.9319
▁refurbish	-11.9319
▁Abortion	-11.9319
▁Aeronautic	-11.9319
▁Afrikaner	-11.9319
▁Crusader	-11.9319
▁Czechoslovak	-11.9319
▁Ethiopia	-11.9319
▁Hydro	-11.9319
▁Matthew	-11.9319
▁RISC	-11.9319
▁Scorpio	-11.9319
▁Shakespeare	-11.9319
▁UFO	-11.9319
▁Vancouver	-11.9319
▁aggregate	-11.9319
▁autumn	-11.9319
▁divisive	-11.9319
▁divorce	-11.9319
▁facsimile	-11.9319
▁hypoglycemi	-11.9319
▁inappropriate	-11.9319
▁loophole	-11.9319
▁rebuff	-11.9319
▁rescind	-11.9319
▁retrofit	-11.9319
▁sovereign	-11.9319
▁trespass	-11.9319
▁turbulen	-11.9319
▁vivid	-11.9319
▁Sheraton	-11.9319
▁gimmick	-11.9319
▁malignan	-11.9319
▁tumult	-11.9319
▁Merchant	-11.9319
▁Pfizer	-11.9319
▁disadvantage	-11.9319
▁village	-11.9319
▁illusion	-11.9319
▁Wheat	-11.9319
▁plague	-11.9319
▁falter	-11.9319
▁Firm	-11.9319
▁Bullock	-11.9319
▁humor	-11.9319
▁PAC	-11.9319
▁residence	-11.9319
▁Bronfman	-11.9319
▁dissent	-11.9319
▁Lazar	-11.9319
▁applicant	-11.9319
▁shatter	-11.9319
▁safeguard	-11.9319
▁Prof	-11.9319
▁Jobs	-11.9319
▁redesign	-11.9319
▁resent	-11.9319
▁pleasure	-11.9319
▁semi	-11.9319
▁Hutchi	-11.9319
▁Reuter	-11.9319
▁Regulator	-11.932
▁Lombard	-11.932
▁blend	-11.932
▁external	-11.932
▁Close	-11.932
▁marble	-11.932
▁Agent	-11.932
▁libel	-11.932
▁hazardous	-11.932
▁timid	-11.932
▁limb	-11.932
▁piano	-11.932
▁loath	-11.932
▁proud	-11.932
▁ceramic	-11.9321
▁discard	-11.9321
▁fake	-11.9321
▁fame	-11.9321
▁dizz	-11.9321
▁hover	-11.9321
▁delight	-11.9322
▁offshore	-11.9322
▁Strong	-11.9322
▁polyp	-11.9322
▁resale	-11.9322
▁Hubb	-11.9322
▁Kirk	-11.9322
▁tilt	-11.9323
▁Liberal	-11.9323
▁Thorn	-11.9323
▁deviation	-11.9324
▁prepaid	-11.9324
▁friendship	-11.9324
▁phrase	-11.9324
▁policyholder	-11.9325
▁invitation	-11.9325
▁Trott	-11.9325
▁punch	-11.9325
▁Local	-11.9325
▁deem	-11.9326
▁disposal	-11.9326
▁Classic	-11.9326
▁laser	-11.9326
▁layoff	-11.9326
▁Judicia	-11.9327
▁incumbent	-11.9327
▁McNam	-11.9327
▁outfit	-11.9328
▁snow	-11.9328
▁Truck	-11.9328
▁concentration	-11.9328
IT	-11.9328
▁jeopardize	-11.9328
▁overlook	-11.9329
▁notify	-11.9329
▁Deput	-11.9329
oftware	-11.933
▁Avon	-11.933
▁reinstate	-11.933
▁authors	-11.933
▁valuation	-11.933
▁Providen	-11.933
▁Hahn	-11.9331
▁Employ	-11.9331
▁Sound	-11.9331
▁trapp	-11.9331
▁selective	-11.9331
▁Palmer	-11.9331
poli	-11.9331
Touche	-11.9332
▁grabb	-11.9332
▁Solar	-11.9332
▁declaration	-11.9332
▁Highway	-11.9333
▁showroom	-11.9334
▁ironic	-11.9334
▁tube	-11.9334
▁94	-11.9334
▁Nort	-11.9334
▁Jeffer	-11.9336
▁incinerat	-11.9336
▁chicken	-11.9336
▁diagnostic	-11.9337
▁Design	-11.9337
▁rubber	-11.9338
▁leftist	-11.9338
GB	-11.9339
nitive	-11.9339
▁Gil	-11.9339
▁Sharp	-11.9341
▁wonderful	-11.9343
▁inspection	-11.9343
▁magic	-11.9344
▁Heller	-11.9344
▁sexual	-11.9344
▁confere	-11.9345
▁summon	-11.9349
▁Rubin	-11.935
▁gamble	-11.935
▁Margin	-11.9351
titude	-11.9353
▁Competit	-11.9354
▁Property	-11.9354
▁Stop	-11.9356
enc	-11.9356
rtiz	-11.936
▁Francois	-11.9361
▁fish	-11.9361
▁auditor	-11.9361
▁tune	-11.9361
gee	-11.9362
▁Declin	-11.9362
oundation	-11.9365
▁Sure	-11.9365
▁jobless	-11.9365
4.7	-11.9368
▁Domini	-11.9368
▁Deu	-11.9368
▁rear	-11.9371
ATT	-11.9371
lene	-11.9372
▁doom	-11.9374
▁1967	-11.9374
▁allowance	-11.9375
▁Pur	-11.9379
▁60-	-11.9379
▁fla	-11.938
IVE	-11.938
▁attraction	-11.9382
ledo	-11.9383
▁stepp	-11.9384
▁Deser	-11.9385
▁Josh	-11.9389
ental	-11.9392
▁automated	-11.9395
▁Ng	-11.9396
▁froze	-11.9397
▁35,000	-11.9398
▁Alar	-11.94
▁intensive	-11.94
▁characteristic	-11.94
▁Wind	-11.9403
▁Utsu	-11.9405
▁undertaking	-11.9406
▁Joll	-11.9407
▁SA	-11.9407
▁seniority	-11.9409
▁applaud	-11.941
rax	-11.9413
▁tear	-11.9414
▁peer	-11.9415
rays	-11.9421
▁distributors	-11.9425
nwo	-11.9426
feld	-11.9434
▁heavier	-11.9434
▁Wy	-11.9438
acle	-11.9445
▁dioxi	-11.945
andem	-11.9452
az	-11.9453
▁prisoner	-11.9453
▁electro	-11.9453
mph	-11.946
9.5	-11.946
▁shirt	-11.9461
ound	-11.9466
▁arouse	-11.9474
▁promoter	-11.9475
olive	-11.948
▁deploy	-11.9481
▁340	-11.9484
▁compatib	-11.9494
▁accompani	-11.9495
tha	-11.9503
5.5	-11.9503
▁Try	-11.9511
storage	-11.9516
▁rage	-11.9516
tool	-11.9517
▁Omni	-11.9522
▁mouth	-11.9525
idley	-11.9526
▁104	-11.9526
▁Canto	-11.9527
▁caller	-11.9531
▁Tire	-11.9533
▁qui	-11.9535
▁108	-11.9536
mus	-11.9545
▁emphasiz	-11.9549
haus	-11.9551
▁educat	-11.9573
▁Bran	-11.9574
▁figur	-11.9576
ario	-11.9578
▁spi	-11.958
▁cup	-11.9581
▁bow	-11.9583
▁enabl	-11.9584
▁practic	-11.9595
icop	-11.9599
tron	-11.9607
▁Emba	-11.9613
▁Luc	-11.9617
▁Armo	-11.9618
▁killer	-11.9624
▁tires	-11.9626
oon	-11.9626
science	-11.9632
azio	-11.9633
▁beep	-11.9635
offs	-11.9635
▁arise	-11.9638
▁meal	-11.964
▁praise	-11.9642
▁mal	-11.9643
▁Vil	-11.9645
ged	-11.9647
kow	-11.9649
nvex	-11.9655
km	-11.9662
ency	-11.9664
▁Reg	-11.9671
▁puzzle	-11.9673
▁8.33	-11.9676
▁Grad	-11.9683
63	-11.9685
▁offend	-11.9686
▁Robin	-11.9688
vil	-11.9704
dication	-11.9707
▁See	-11.9714
key	-11.9718
value	-11.972
▁cris	-11.973
,6	-11.973
▁Grub	-11.9742
7.3	-11.9745
stop	-11.975
rigg	-11.9751
hr	-11.9769
▁Cape	-11.977
▁Ror	-11.9771
▁cor	-11.9774
▁shorter	-11.9777
▁behave	-11.9779
▁manipulate	-11.978
▁Kurt	-11.9781
▁den	-11.9782
zzo	-11.9784
aft	-11.9797
▁revolutionar	-11.9801
▁rub	-11.9804
▁Cru	-11.9805
▁ven	-11.9806
▁Had	-11.9807
uffett	-11.9817
▁emergenc	-11.9818
▁Sol	-11.9822
▁Fam	-11.9822
▁shoe	-11.9828
▁solv	-11.9829
rash	-11.9831
▁1\/2-	-11.9831
▁Eddi	-11.984
trick	-11.9841
▁cop	-11.9848
.29	-11.9853
▁tails	-11.9853
MI	-11.9862
▁Colli	-11.9862
cade	-11.9865
hill	-11.9866
▁seiz	-11.9875
elve	-11.9884
▁gyrat	-11.9887
▁postur	-11.9896
▁Supervis	-11.9897
▁perv	-11.9906
▁ultra	-11.991
ave	-11.9915
▁eras	-11.9921
▁acquirer	-11.9932
hitting	-11.9933
▁Hell	-11.9935
-6	-11.9935
▁defer	-11.9946
vel	-11.9948
cable	-11.9948
▁fold	-11.9949
▁hell	-11.9968
▁Pla	-11.9971
▁controller	-11.9978
▁accrue	-11.999
aring	-11.9993
▁averag	-12.0004
▁6\/	-12.0006
tical	-12.0006
▁136	-12.0021
elling	-12.0025
▁rod	-12.0027
4.6	-12.0029
▁Again	-12.0031
▁gate	-12.0033
dget	-12.0041
bus	-12.0046
▁withstand	-12.0055
hoo	-12.0076
▁phon	-12.0086
dell	-12.0088
▁whoop	-12.0092
vested	-12.0093
▁Gat	-12.0094
row	-12.0097
▁Kat	-12.0111
▁Thr	-12.0114
▁Fo	-12.0119
▁Magn	-12.0128
▁Mis	-12.0138
▁trans	-12.0138
▁terrorist	-12.0139
▁Nazi	-12.0145
▁McKinn	-12.0148
trategic	-12.0151
▁upgrad	-12.0158
zed	-12.0158
▁erod	-12.0158
▁10.8	-12.0161
▁importer	-12.0165
immer	-12.0166
▁Carm	-12.0172
▁crumbl	-12.0175
▁Lea	-12.0178
▁Neil	-12.018
▁Laure	-12.0183
▁Kur	-12.0183
▁Greene	-12.0184
▁Jane	-12.0194
▁Cho	-12.02
▁Ly	-12.02
▁chi	-12.0213
ideo	-12.0224
MP	-12.0228
▁Leon	-12.0229
▁ent	-12.0232
▁Mari	-12.0232
▁responsi	-12.0244
▁Bick	-12.0246
▁imaginati	-12.0247
▁fri	-12.0247
author	-12.0261
DA	-12.0263
▁Bare	-12.027
▁stimulate	-12.0273
▁22.5	-12.0275
▁Seat	-12.0275
found	-12.0275
OK	-12.0278
89	-12.0279
eater	-12.0283
▁nurse	-12.0288
▁dive	-12.0293
lock	-12.0294
▁locat	-12.0294
▁Gro	-12.0304
▁32-	-12.0304
condition	-12.0306
empt	-12.0307
monopol	-12.0307
digit	-12.0308
deductible	-12.0308
democrac	-12.0317
identifie	-12.0317
speak	-12.0317
▁Strateg	-12.0317
complete	-12.0318
▁gentle	-12.0318
warrant	-12.0319
bow	-12.0319
school	-12.032
safe	-12.032
research	-12.032
1980	-12.032
fourth	-12.032
second	-12.032
anticipate	-12.0321
child	-12.0323
▁Cel	-12.0325
▁analyz	-12.0326
ican	-12.0327
Scott	-12.033
▁parliament	-12.0333
metal	-12.0333
Bri	-12.0333
,300	-12.034
9.9	-12.0341
funct	-12.0344
9.2	-12.0354
▁revers	-12.0358
▁18.5	-12.0359
white	-12.036
mination	-12.0367
living	-12.0367
▁Mus	-12.0369
▁pla	-12.0369
Net	-12.0378
▁NO	-12.038
▁Ab	-12.0386
lte	-12.0391
▁liquidate	-12.0392
▁Milli	-12.0394
▁undercut	-12.0405
950	-12.0409
.98	-12.0421
gher	-12.0426
▁casual	-12.0426
▁optimis	-12.0428
ven	-12.0434
average	-12.0437
Arc	-12.0439
itiative	-12.0446
NW	-12.0455
▁Bab	-12.0457
sense	-12.0458
rou	-12.046
▁companion	-12.0462
▁DA	-12.0471
▁stereo	-12.0473
ffer	-12.0474
▁Joan	-12.0476
fit	-12.0476
DNA	-12.0486
bury	-12.0492
▁origin	-12.0492
▁sky	-12.0492
▁Marri	-12.0493
spect	-12.0496
▁mailing	-12.0498
core	-12.0503
▁Vot	-12.0506
▁logic	-12.0507
▁cycl	-12.0508
ieve	-12.0512
▁deter	-12.0514
▁Monte	-12.0514
▁patrol	-12.0514
▁Maria	-12.0523
Backe	-12.0523
▁kidnapp	-12.0524
▁flip	-12.0529
▁Haa	-12.0531
▁scan	-12.0535
date	-12.0535
minded	-12.0536
▁jam	-12.0537
▁confer	-12.0542
▁resell	-12.0543
▁bacteri	-12.0546
hin	-12.0547
▁slack	-12.0549
rrow	-12.0552
ubcommittee	-12.0554
▁bump	-12.0557
▁320	-12.0559
▁Kath	-12.056
pact	-12.0561
▁interrupt	-12.0562
▁earlie	-12.0564
▁feat	-12.0565
▁stir	-12.0565
▁faith	-12.0565
▁Ern	-12.0566
▁distract	-12.0566
▁Olympi	-12.0567
▁academ	-12.0568
▁approache	-12.0569
▁buzz	-12.0569
caffeine	-12.0569
▁Knuds	-12.0569
▁Double	-12.0569
▁inherent	-12.0569
▁resurrect	-12.0569
▁190.58	-12.0569
▁Certain	-12.0569
▁Ehrlich	-12.0569
▁Helmut	-12.0569
▁Norwegian	-12.0569
▁Symbol	-12.0569
▁Tribune	-12.0569
▁Ultimate	-12.0569
▁arsenal	-12.0569
▁burglar	-12.0569
▁contraceptive	-12.0569
▁delicate	-12.0569
▁elegant	-12.0569
▁exaggerate	-12.0569
▁incredibl	-12.0569
▁indefinite	-12.0569
▁metaphor	-12.0569
▁nominee	-12.0569
▁ordinance	-12.0569
▁premature	-12.0569
▁statutor	-12.0569
▁subpoena	-12.0569
▁unlawful	-12.0569
▁Additional	-12.0569
▁dawn	-12.0569
▁slope	-12.0569
▁Concord	-12.0569
▁lubricant	-12.0569
▁skyrocket	-12.0569
▁gossip	-12.0569
▁reorganize	-12.0569
Slau	-12.0569
▁Tariff	-12.0569
▁snack	-12.0569
▁ACCOUNT	-12.0569
▁Argentin	-12.0569
▁embargo	-12.0569
▁swallow	-12.0569
▁languish	-12.0569
▁Yankee	-12.0569
▁spiral	-12.0569
▁traged	-12.0569
▁Summer	-12.0569
▁yellow	-12.0569
▁imprison	-12.0569
▁minimill	-12.0569
▁violin	-12.0569
▁blind	-12.0569
▁chef	-12.0569
▁videocassette	-12.0569
▁sociologist	-12.0569
▁spook	-12.0569
▁clever	-12.0569
▁Left	-12.0569
▁feedlot	-12.0569
▁notorious	-12.0569
▁vault	-12.0569
oretical	-12.0569
▁uneas	-12.0569
cumber	-12.0569
▁Marxist	-12.0569
▁shelve	-12.0569
▁Twenty	-12.0569
▁squad	-12.0569
▁Keep	-12.0569
▁surgical	-12.0569
▁Medicine	-12.0569
▁telemarket	-12.0569
▁flock	-12.057
▁Command	-12.057
clusion	-12.057
▁administer	-12.057
▁marine	-12.057
▁reassess	-12.057
▁Wool	-12.057
▁sequester	-12.057
▁Student	-12.057
▁Otto	-12.057
▁Guide	-12.057
▁Richfield	-12.057
▁parcel	-12.057
▁auster	-12.057
▁convey	-12.057
▁Warburg	-12.057
mobile	-12.057
▁assort	-12.057
▁mask	-12.057
▁vicious	-12.057
▁Waste	-12.057
▁purse	-12.057
▁headache	-12.057
▁keen	-12.0571
▁Ground	-12.0571
▁stack	-12.0571
▁thumb	-12.0571
▁Travi	-12.0571
tronic	-12.0571
▁transmission	-12.0571
▁fragment	-12.0571
▁Tender	-12.0571
▁solar	-12.0572
AMERICA	-12.0572
▁Southeast	-12.0572
▁greet	-12.0572
▁Duff	-12.0572
▁Consultant	-12.0572
▁confidential	-12.0573
▁refrigerator	-12.0573
▁Rafale	-12.0573
▁Ernest	-12.0573
▁variable	-12.0573
▁whack	-12.0573
▁Jefferson	-12.0573
▁Castro	-12.0574
▁dumb	-12.0574
ample	-12.0574
▁campus	-12.0574
▁reclaim	-12.0575
▁Device	-12.0575
▁Mail	-12.0575
dairy	-12.0575
▁pullback	-12.0575
ovia	-12.0575
▁fabrication	-12.0576
▁tackle	-12.0576
▁damn	-12.0576
▁Rif	-12.0578
▁meaningful	-12.0578
▁height	-12.0578
▁peaceful	-12.0578
▁batch	-12.0578
▁mold	-12.0579
▁powerhouse	-12.058
▁1,800	-12.058
▁disabled	-12.058
▁Siem	-12.058
▁hurr	-12.0581
▁Bull	-12.0581
▁hacker	-12.0581
▁abate	-12.0581
▁toilet	-12.0582
▁unfold	-12.0582
▁infection	-12.0582
▁backfire	-12.0583
▁Jenni	-12.0583
▁contemporar	-12.0583
▁Perri	-12.0583
▁wedge	-12.0584
▁Lynn	-12.0585
▁plug	-12.0586
▁glut	-12.0586
▁soap	-12.0587
▁enhancement	-12.0587
▁transmitt	-12.0587
▁distan	-12.0588
▁buffet	-12.0588
▁mar	-12.0589
▁lavish	-12.0589
▁portrait	-12.0589
▁UBS	-12.0589
▁Joint	-12.0589
▁McGraw	-12.0589
chel	-12.059
▁titan	-12.059
omestic	-12.0591
▁euph	-12.0591
▁Factor	-12.0591
▁Comment	-12.0592
▁frenz	-12.0593
▁1.82	-12.0593
gues	-12.0595
▁Mem	-12.0595
▁Advance	-12.0598
▁Broder	-12.0598
▁contaminat	-12.06
▁Have	-12.0601
urrency	-12.0602
▁Wend	-12.0603
▁260	-12.0603
▁Seab	-12.0604
▁modifie	-12.0604
▁whiske	-12.0604
▁Patric	-12.0604
▁Child	-12.0605
▁ambition	-12.0607
▁bind	-12.0608
▁Mort	-12.0608
▁buckle	-12.0609
▁Jeweler	-12.0609
▁2\/3	-12.061
raz	-12.061
▁trafficker	-12.061
▁satir	-12.0611
▁blessing	-12.0611
▁Mag	-12.0613
▁Include	-12.0613
mise	-12.0615
TON	-12.0615
▁Underwrit	-12.0617
▁Indiana	-12.0617
iano	-12.062
▁Elli	-12.062
▁cra	-12.0621
▁sacrifice	-12.0623
rosion	-12.0623
▁patch	-12.0624
▁mistaken	-12.0625
▁entrench	-12.0625
09	-12.0627
▁towel	-12.0627
▁Pop	-12.0628
▁alcohol	-12.0629
▁Sara	-12.0631
▁logical	-12.0633
▁Legen	-12.0634
▁va	-12.0635
▁Saul	-12.0636
▁Inno	-12.0637
▁325	-12.0641
▁clip	-12.0647
ugal	-12.0649
▁Bowl	-12.0652
▁divergen	-12.0653
▁overstate	-12.0654
▁lineup	-12.0656
▁capita	-12.0659
▁drum	-12.0659
▁boxe	-12.066
▁124	-12.0661
▁Shim	-12.0662
▁illness	-12.0664
▁lev	-12.0664
▁Publisher	-12.0665
▁Parks	-12.0673
▁18.6	-12.0676
wagon	-12.0681
▁pollen	-12.0683
aska	-12.0686
▁flam	-12.0687
▁retin	-12.0692
▁Kag	-12.0693
▁passion	-12.0693
▁gang	-12.0694
▁Jacob	-12.0697
guine	-12.0698
asive	-12.0698
▁Jamie	-12.0699
▁Norm	-12.0699
runn	-12.0699
▁Thanks	-12.0702
▁biker	-12.0703
17	-12.0705
82	-12.0705
owitz	-12.0707
▁reconstruct	-12.0708
▁layer	-12.0711
▁decepti	-12.0713
▁Apo	-12.0713
luminum	-12.0714
▁accessor	-12.0714
2.9	-12.0715
▁26-	-12.072
▁tens	-12.072
▁liberalize	-12.0721
SP	-12.0721
▁dire	-12.0725
▁141.5	-12.0726
▁Burk	-12.0728
▁Mate	-12.0734
▁Burr	-12.0737
▁Aqui	-12.0738
▁occupie	-12.074
▁circulati	-12.0741
pparent	-12.0747
INS	-12.0748
▁busies	-12.0749
▁Actual	-12.0751
▁shy	-12.0753
eil	-12.0759
anti	-12.0769
▁SK	-12.0769
▁Palm	-12.0775
▁equipp	-12.0777
ALL	-12.0779
▁unwa	-12.0782
▁Ei	-12.0786
▁Schl	-12.0789
▁subscribe	-12.0789
adja	-12.0791
▁Toy	-12.0792
▁chew	-12.0798
leaguer	-12.0803
▁pillar	-12.0808
Kline	-12.081
▁Kay	-12.0811
inter	-12.0823
-18	-12.0829
anca	-12.0841
pper	-12.0851
▁bra	-12.0854
▁Cle	-12.0865
▁swor	-12.087
▁rout	-12.0875
▁comprise	-12.0876
5.8	-12.0878
owe	-12.0884
▁pri	-12.0885
55	-12.0889
▁275	-12.0894
▁Kev	-12.09
27	-12.0902
bris	-12.0916
▁Hay	-12.0918
▁glamor	-12.0923
illa	-12.0936
▁bla	-12.0937
aji	-12.0937
dus	-12.0938
▁evade	-12.094
bin	-12.0947
lowe	-12.0947
▁converter	-12.0965
▁minimize	-12.0967
▁Mos	-12.0967
▁Accept	-12.097
▁Suppl	-12.0972
▁AN	-12.0972
▁Pen	-12.0973
▁contraction	-12.0977
▁button	-12.0982
▁horn	-12.099
▁Weeke	-12.0992
▁12.3	-12.0995
▁Mario	-12.0996
rgus	-12.0996
▁1.58	-12.0999
▁pizza	-12.1006
▁Victoria	-12.1006
▁2-	-12.1009
ify	-12.1013
arian	-12.1017
pp	-12.1019
station	-12.1026
-13	-12.1027
▁conscious	-12.1028
▁Vern	-12.1029
uci	-12.1032
▁diet	-12.1041
enburg	-12.1042
▁collaps	-12.1044
▁Chest	-12.1046
▁gri	-12.1047
vir	-12.1048
▁parad	-12.1049
intel	-12.105
▁defender	-12.1055
anto	-12.1062
ative	-12.1064
▁Galle	-12.1068
▁Pret	-12.1069
ridde	-12.1073
gain	-12.1075
6.5	-12.1083
agu	-12.1083
▁13.7	-12.1083
nvertible	-12.1084
ria	-12.1085
▁UP	-12.1088
wall	-12.1093
keep	-12.1097
chim	-12.1103
▁Ferr	-12.1105
▁Tan	-12.1107
▁Plu	-12.1109
▁Naz	-12.1112
▁heir	-12.112
▁Adams	-12.1123
▁clo	-12.1125
▁proc	-12.1126
▁Emer	-12.1144
LJ	-12.1149
eb	-12.1153
▁11.8	-12.1174
▁Wors	-12.1182
▁Liz	-12.1185
▁retrieve	-12.1188
▁pie	-12.119
volo	-12.12
uber	-12.1205
activate	-12.1207
ben	-12.1207
▁dispose	-12.1208
▁Ya	-12.1208
rine	-12.1211
▁Sit	-12.1212
▁35-	-12.1217
▁1989-8	-12.1218
▁overturn	-12.1222
▁72-	-12.1222
instay	-12.1233
▁Barret	-12.1233
9.6	-12.1244
cap	-12.1248
ntage	-12.1263
▁16-	-12.1269
▁11.4	-12.1273
IS	-12.1287
anne	-12.1288
▁motivat	-12.1288
aker	-12.1299
▁Furu	-12.1318
▁stat	-12.1325
mmer	-12.1333
05	-12.1334
ird	-12.1338
▁27.9	-12.1339
art	-12.134
▁Cro	-12.1344
ggy	-12.1348
▁210	-12.1349
▁Ph	-12.1356
▁pigs	-12.136
▁respectab	-12.1366
repaid	-12.1373
▁amass	-12.1376
isse	-12.1381
▁map	-12.1381
▁celebrat	-12.139
orbit	-12.1404
▁11.7	-12.1405
▁pol	-12.1406
▁Ruben	-12.1412
▁8.03	-12.1412
▁cartoon	-12.1417
.94	-12.1422
▁dig	-12.1429
▁JA	-12.1443
▁rap	-12.1461
▁Stal	-12.1465
1.7	-12.1467
ena	-12.1467
▁propriet	-12.1469
▁mint	-12.147
▁18.7	-12.1478
▁bottl	-12.1484
manag	-12.1484
▁switche	-12.1512
▁premiere	-12.1515
▁20.5	-12.1516
▁Spect	-12.1525
▁Make	-12.1536
ggie	-12.1542
▁wad	-12.1543
ire	-12.1551
▁recit	-12.1552
ruz	-12.1559
ora	-12.156
sma	-12.1562
vsk	-12.1566
▁customs	-12.1569
▁univers	-12.1569
▁refuge	-12.157
▁Deer	-12.1574
▁bounc	-12.1575
teful	-12.1578
▁proliferat	-12.1579
ath	-12.1586
comp	-12.1587
kov	-12.1597
▁Nick	-12.1598
servic	-12.1599
▁Tr	-12.16
▁Disco	-12.1603
▁Ek	-12.1607
▁translat	-12.1608
▁Cy	-12.1619
▁Live	-12.1624
▁215	-12.1636
rical	-12.1639
dering	-12.1639
vian	-12.1639
flat	-12.1641
IG	-12.1649
9.4	-12.166
uring	-12.1661
▁Cane	-12.1668
▁enhanc	-12.1684
▁galvanize	-12.1686
▁Ten	-12.1699
hol	-12.17
▁updat	-12.1701
▁Gol	-12.1704
ragg	-12.1705
▁sin	-12.1711
dolph	-12.1713
▁scat	-12.1718
lier	-12.1724
sters	-12.1725
mergency	-12.1726
arch	-12.1726
coaster	-12.1728
play	-12.173
employe	-12.1732
subscribe	-12.1732
pillar	-12.1733
Palm	-12.1733
weight	-12.1734
▁280	-12.1734
mouth	-12.1736
withstand	-12.1736
bird	-12.1737
proof	-12.174
mah	-12.1741
▁linger	-12.1741
solicit	-12.1741
ugh	-12.1743
democratic	-12.1743
border	-12.1745
register	-12.1745
constitutional	-12.1746
glass	-12.1746
picture	-12.1746
traffic	-12.1747
log	-12.1747
access	-12.1747
waste	-12.1747
morning	-12.1748
arbitrage	-12.1748
reform	-12.1748
material	-12.1748
margin	-12.1748
financial	-12.1749
book	-12.1749
▁Glas	-12.1749
fight	-12.1749
bigge	-12.1749
South	-12.175
common	-12.175
record	-12.175
Hill	-12.175
treatment	-12.175
injury	-12.1751
MAC	-12.1752
blast	-12.1754
office	-12.1755
▁Down	-12.1756
high	-12.1757
▁gam	-12.176
49.3	-12.1761
▁educate	-12.1766
▁tumbl	-12.1767
▁dies	-12.1775
lor	-12.1777
ticket	-12.178
▁eva	-12.1782
▁yards	-12.1784
NBC	-12.1786
▁375	-12.1787
wait	-12.179
rank	-12.1796
▁Weil	-12.1803
▁da	-12.1804
▁separat	-12.1808
DB	-12.1809
▁remed	-12.1811
rang	-12.1817
cho	-12.182
.41	-12.1826
▁Pil	-12.1827
▁143	-12.1828
ickel	-12.1832
chew	-12.1832
turn	-12.1832
▁Too	-12.1834
Poul	-12.1835
▁zi	-12.1843
▁dominan	-12.1843
▁sigh	-12.1845
▁Card	-12.1847
▁endanger	-12.1849
▁Teles	-12.1853
2.8	-12.1854
▁stamp	-12.1854
eferred	-12.1858
▁thriv	-12.1864
pay	-12.1865
▁oblig	-12.1865
ines	-12.1869
▁Sp	-12.1874
erie	-12.1877
▁Accord	-12.1878
▁significan	-12.188
link	-12.188
▁747	-12.188
▁McG	-12.1882
▁Institut	-12.1883
urie	-12.1892
▁Ris	-12.1895
aki	-12.1901
▁16.2	-12.1903
▁instruct	-12.1905
▁1.27	-12.1914
eparation	-12.1914
▁contemplate	-12.1914
47	-12.1915
piro	-12.1917
guy	-12.1925
▁bran	-12.1925
66	-12.1928
nker	-12.193
AKE	-12.1933
allowe	-12.1939
▁bowl	-12.1941
▁downgrad	-12.1944
▁ear	-12.1947
▁Wak	-12.1952
▁norm	-12.1953
▁13.2	-12.1953
▁Aer	-12.1954
▁periodic	-12.1958
▁370	-12.1959
▁compos	-12.1965
▁Step	-12.1967
▁Berli	-12.1971
harp	-12.1973
▁1,3	-12.1973
▁raid	-12.1974
ifi	-12.1974
▁advertise	-12.1977
stra	-12.1978
ida	-12.1978
ecurity	-12.1979
▁Low	-12.198
▁ensur	-12.1982
▁chronic	-12.1984
competent	-12.1986
▁teache	-12.1986
▁cru	-12.1986
▁Russia	-12.1988
▁Cu	-12.1988
▁enthusiast	-12.1989
▁pragmati	-12.1989
aking	-12.1989
▁distinct	-12.1989
▁cruise	-12.199
▁snap	-12.199
uzzi	-12.199
▁reimburse	-12.1992
rdlo	-12.1992
▁addict	-12.1993
eflect	-12.1993
▁abort	-12.1994
nvenience	-12.1995
▁bankrupt	-12.1995
ple	-12.1995
▁reign	-12.1996
rosecutor	-12.1996
9.3	-12.1996
▁Hut	-12.1997
▁jack	-12.1997
▁potent	-12.1997
▁Enviro	-12.1997
▁Pepsi	-12.1997
▁Retail	-12.1997
practitioner	-12.1997
▁Alternative	-12.1997
▁Challenge	-12.1997
▁Governor	-12.1997
▁Immune	-12.1997
▁Scandinavia	-12.1997
▁Scenario	-12.1997
▁Thousand	-12.1997
▁Trouble	-12.1997
▁abundant	-12.1997
▁adhesive	-12.1997
▁decisive	-12.1997
▁detergent	-12.1997
▁elephant	-12.1997
▁fossil	-12.1997
▁jazz	-12.1997
▁lumber	-12.1997
▁memorandum	-12.1997
▁negligen	-12.1997
▁nostalgi	-12.1997
▁peasant	-12.1997
▁preclude	-12.1997
▁pronounce	-12.1997
▁racehorse	-12.1997
▁streak	-12.1997
▁stupid	-12.1997
▁superconductor	-12.1997
▁unrealistic	-12.1997
▁Idaho	-12.1997
▁Keizai	-12.1997
▁Revolution	-12.1997
▁Support	-12.1997
▁Survey	-12.1997
▁arrogan	-12.1997
▁custod	-12.1997
▁explicit	-12.1997
▁herbicide	-12.1997
▁precaution	-12.1997
▁recipe	-12.1997
▁relinquish	-12.1997
▁remote	-12.1997
▁scratch	-12.1997
▁steriliz	-12.1997
▁surpass	-12.1997
▁tunnel	-12.1997
▁Dassault	-12.1997
▁Litv	-12.1997
▁Movie	-12.1997
▁Recruit	-12.1997
▁alleviat	-12.1997
▁appall	-12.1997
▁arbitrar	-12.1997
▁contradict	-12.1997
▁nightmare	-12.1997
▁recoup	-12.1997
▁signature	-12.1997
▁terrif	-12.1997
▁unleash	-12.1997
▁mimic	-12.1997
▁renovat	-12.1997
dimension	-12.1997
recipi	-12.1997
▁homosexual	-12.1997
▁Andreas	-12.1997
▁Salvador	-12.1997
▁implicit	-12.1997
▁envy	-12.1997
▁hemorrhag	-12.1997
▁sniff	-12.1997
▁staunch	-12.1997
▁reoffer	-12.1997
▁Initial	-12.1997
▁riot	-12.1997
tton	-12.1997
▁buff	-12.1997
▁dissolve	-12.1997
▁Automobile	-12.1997
▁grasp	-12.1997
▁ecological	-12.1997
fluoro	-12.1997
▁disguise	-12.1997
▁mafia	-12.1997
▁spreadsheet	-12.1998
▁courier	-12.1998
▁lump	-12.1998
▁grievance	-12.1998
▁Freight	-12.1998
▁tongue	-12.1998
▁Kinder	-12.1998
▁thoroughbred	-12.1998
▁Talk	-12.1998
▁halve	-12.1998
▁nagging	-12.1998
▁probabilit	-12.1998
▁confine	-12.1998
▁demographic	-12.1998
▁ponder	-12.1998
▁dispersant	-12.1998
▁budd	-12.1998
▁enjoin	-12.1998
▁blond	-12.1998
▁reception	-12.1998
▁Rhone	-12.1998
▁acquitt	-12.1998
▁DeVo	-12.1998
▁deliberation	-12.1998
awthorn	-12.1998
▁Blind	-12.1998
▁autonom	-12.1998
▁undul	-12.1998
▁polish	-12.1998
▁Peasant	-12.1998
▁invade	-12.1999
▁Bernstein	-12.1999
▁fax	-12.1999
▁landfill	-12.1999
▁Wheel	-12.1999
▁frank	-12.1999
▁Armenian	-12.1999
▁championship	-12.1999
▁recount	-12.1999
▁drunk	-12.1999
vious	-12.1999
▁savv	-12.1999
▁gem	-12.1999
▁deflator	-12.1999
HEN	-12.1999
▁pinpoint	-12.1999
▁secretari	-12.1999
▁verge	-12.1999
sterile	-12.1999
▁exile	-12.2
▁gloss	-12.2
▁garage	-12.2
▁Volk	-12.2
▁reliabl	-12.2
phis	-12.2
▁glare	-12.2
▁62.8	-12.2
▁pico	-12.2
▁uninsur	-12.2
▁hydro	-12.2
uarter	-12.2
▁foil	-12.2
▁restart	-12.2
▁Claud	-12.2001
▁evil	-12.2001
▁seism	-12.2001
▁motorist	-12.2001
▁conservation	-12.2001
▁Sumit	-12.2001
▁foul	-12.2002
▁fray	-12.2002
▁Specific	-12.2002
▁palm	-12.2002
▁Assum	-12.2003
▁memorab	-12.2003
▁elevator	-12.2003
▁hostage	-12.2003
▁Dayton	-12.2003
▁distinction	-12.2004
▁arrival	-12.2004
▁Syrian	-12.2004
▁Barber	-12.2004
▁overreact	-12.2004
▁tractor	-12.2004
▁coca	-12.2004
▁populat	-12.2004
▁melt	-12.2005
doch	-12.2006
▁yank	-12.2006
▁McCart	-12.2007
▁stimulator	-12.2007
▁narrat	-12.2007
▁Complet	-12.2007
▁handsome	-12.2008
▁accomplishment	-12.2008
▁Libyan	-12.2008
kota	-12.2009
▁Beef	-12.2009
upil	-12.2009
▁mom	-12.201
▁courthouse	-12.201
▁21.3	-12.201
▁Inflation	-12.2011
▁Messia	-12.2011
▁Lung	-12.2011
mipu	-12.2011
▁filter	-12.2012
▁Prav	-12.2012
IFI	-12.2012
▁diversion	-12.2012
laywright	-12.2012
▁Copper	-12.2013
▁Regal	-12.2013
rborn	-12.2013
▁differential	-12.2013
▁propell	-12.2013
zig	-12.2014
▁22.8	-12.2014
▁flatten	-12.2014
▁Bock	-12.2015
▁Tomorrow	-12.2016
▁ferry	-12.2018
cule	-12.2018
olini	-12.202
▁Beech	-12.202
▁Yone	-12.202
▁Arl	-12.202
77	-12.2021
urement	-12.2021
▁orthodox	-12.2021
▁sporadic	-12.2021
▁yuppie	-12.2021
▁LAW	-12.2021
▁Madrid	-12.2021
.56	-12.2021
▁avert	-12.2021
▁Meyer	-12.2022
▁spray	-12.2022
▁prohibition	-12.2023
▁fret	-12.2023
▁censor	-12.2025
istu	-12.2025
▁zone	-12.2026
▁Bund	-12.2026
▁swimm	-12.2027
naire	-12.2027
▁Gain	-12.2028
adill	-12.2028
▁39.5	-12.2028
lnik	-12.2029
▁subway	-12.203
▁Developer	-12.203
CAA	-12.2031
▁cutback	-12.2031
▁overrun	-12.2031
▁Shopp	-12.2031
▁ABB	-12.2031
▁conception	-12.2032
▁tainted	-12.2032
▁sang	-12.2032
▁Eas	-12.2034
▁creepi	-12.2035
Tech	-12.2037
▁Fink	-12.2037
▁survivor	-12.2039
▁Carri	-12.2039
▁elite	-12.2041
▁stampede	-12.2041
▁trademark	-12.2041
▁224	-12.2041
▁tang	-12.2041
▁Environmentalis	-12.2042
▁1.59	-12.2042
▁99.1	-12.2044
▁Tian	-12.2047
EAR	-12.2047
▁Box	-12.2049
▁playoff	-12.2051
▁allocat	-12.2055
▁229	-12.2055
▁Fear	-12.2057
▁reactor	-12.2058
▁pullout	-12.2059
▁reel	-12.2059
▁148	-12.2061
▁Leo	-12.2061
▁midsize	-12.2062
▁1,200	-12.2063
▁13\/	-12.2064
▁tailor	-12.2064
▁outlaw	-12.2065
izar	-12.2065
▁input	-12.2066
▁Crest	-12.2067
▁Orr	-12.2068
▁brutal	-12.2069
▁bleed	-12.2069
ject	-12.207
▁composer	-12.207
▁renewal	-12.2071
tenth	-12.2073
▁anim	-12.2077
▁Ward	-12.2077
▁Officer	-12.2078
▁glad	-12.2081
▁1,400	-12.2082
ram	-12.2088
start	-12.209
38.7	-12.2093
▁innovati	-12.2101
▁Abb	-12.2101
▁Compare	-12.2102
▁creator	-12.2103
▁inhibit	-12.2103
▁booking	-12.2105
▁constraint	-12.2106
▁DC	-12.2107
CE	-12.211
▁Dep	-12.211
GY	-12.2113
▁Haag	-12.2113
▁Voy	-12.2113
▁explode	-12.2115
▁clock	-12.2116
▁hunter	-12.2116
▁preparation	-12.2118
ubro	-12.2119
▁UV	-12.2119
▁16.4	-12.2121
yuki	-12.2122
▁dogg	-12.2123
▁obligat	-12.2126
▁Give	-12.2127
▁Clif	-12.2129
▁1.37	-12.2131
▁glob	-12.2131
▁7.95	-12.2132
▁soda	-12.2135
▁moderat	-12.2135
▁GA	-12.2138
▁Sago	-12.2139
▁Sai	-12.2144
▁Milk	-12.2144
arms	-12.2144
▁distinguish	-12.2145
▁harmon	-12.2145
▁conservator	-12.2146
▁eighth	-12.215
▁witch	-12.2151
ALI	-12.2151
har	-12.2152
▁grid	-12.2156
▁Aid	-12.2156
duci	-12.2158
▁citizen	-12.2159
ircraft	-12.2159
hara	-12.2164
▁com	-12.2164
▁Shere	-12.2166
▁poorer	-12.2168
▁15-	-12.2176
▁bal	-12.2176
tadium	-12.2184
drop	-12.2184
▁Shea	-12.2185
ureth	-12.2192
▁Hick	-12.2192
▁outage	-12.2193
▁Top	-12.2193
▁Combi	-12.2195
▁soup	-12.2201
▁topi	-12.2205
▁pitcher	-12.2211
▁Addis	-12.2215
71	-12.2217
ffy	-12.2221
tchen	-12.2224
▁Pren	-12.2225
▁undo	-12.2232
▁132	-12.2233
▁quantity	-12.2233
▁1.60	-12.2234
▁butler	-12.2241
▁Bow	-12.2242
erryman	-12.2243
▁syndicat	-12.2243
▁Beth	-12.2249
▁pitche	-12.225
▁Sham	-12.2263
fully	-12.2263
24	-12.2264
▁taping	-12.2271
Face	-12.2272
▁roman	-12.2273
torage	-12.2277
▁Dann	-12.2282
▁Clai	-12.2284
▁apt	-12.2286
▁tips	-12.2286
▁reinforc	-12.2294
pike	-12.2294
usage	-12.2295
▁imply	-12.2297
▁amaze	-12.23
▁bat	-12.23
▁coinciden	-12.2302
▁Rail	-12.2303
▁unus	-12.2308
▁galvaniz	-12.2318
▁Bowe	-12.2322
▁Ger	-12.2331
▁merg	-12.2335
lick	-12.2346
▁lit	-12.2349
▁customar	-12.2357
▁Osa	-12.2357
▁Would	-12.2357
▁mad	-12.2364
trum	-12.2364
▁coff	-12.2364
▁Ado	-12.2367
▁preoccup	-12.237
▁gro	-12.2374
mat	-12.2377
ortunate	-12.2378
.13	-12.2381
▁refined	-12.2382
▁Vick	-12.2383
Mid	-12.2389
53.2	-12.2394
shine	-12.2401
ctic	-12.2407
▁homer	-12.2407
▁bottled	-12.2409
ferro	-12.2412
▁acceptance	-12.2414
▁Transit	-12.2415
j	-12.2416
oxy	-12.2419
ara	-12.242
59.2	-12.2432
has	-12.2435
▁Deb	-12.244
alem	-12.244
uf	-12.2442
96	-12.2444
▁obscure	-12.2445
▁shap	-12.2456
▁Hilt	-12.2456
91	-12.2463
▁forge	-12.2463
84	-12.2466
▁pent	-12.2476
▁188	-12.2476
▁Base	-12.2479
llow	-12.2483
▁cart	-12.2485
▁Owners	-12.2488
▁1.26	-12.2489
43.6	-12.2492
mission	-12.2494
ripped	-12.2497
33	-12.2501
▁exp	-12.2502
▁Kr	-12.2514
upo	-12.252
▁Hib	-12.2536
▁1,7	-12.2538
▁193	-12.2542
GO	-12.2545
thetic	-12.2546
▁8.42	-12.2547
▁curv	-12.2552
▁inning	-12.2553
▁bloody	-12.2553
▁Find	-12.2555
astro	-12.2559
▁ki	-12.256
▁receiver	-12.257
▁Cela	-12.2573
▁Fur	-12.2575
een	-12.2579
fu	-12.258
▁45-	-12.2582
▁12.7	-12.2586
▁Rod	-12.2588
▁Bid	-12.2591
FAR	-12.2593
▁Bent	-12.2595
▁Midl	-12.2596
▁tee	-12.2609
7.6	-12.2616
mbros	-12.2628
▁1.16	-12.263
overi	-12.2634
▁intentional	-12.2638
utter	-12.2641
vot	-12.2642
▁Welc	-12.2648
▁collar	-12.2655
▁Dian	-12.2663
▁cooling	-12.2668
▁14.2	-12.2678
hon	-12.2685
EL	-12.2686
wan	-12.2687
▁Monet	-12.2704
▁lone	-12.2705
kind	-12.2705
▁Wein	-12.271
▁Poly	-12.2712
lane	-12.272
bor	-12.2721
▁decorat	-12.2722
▁gentl	-12.2724
▁glue	-12.2725
66.7	-12.273
▁temp	-12.2737
▁Born	-12.2741
tious	-12.2741
gus	-12.2745
▁Cutl	-12.2749
▁Wachte	-12.2754
earning	-12.2754
▁Mons	-12.2755
▁38.5	-12.2755
▁Kyo	-12.2758
main	-12.2772
IL	-12.2775
ody	-12.2783
hal	-12.2799
hum	-12.2801
▁12.6	-12.2802
late	-12.2808
raiser	-12.2828
enig	-12.2829
▁riches	-12.2835
▁21.7	-12.2838
MT	-12.284
▁conscien	-12.2846
.86	-12.2849
▁142.1	-12.2854
▁dispos	-12.2863
26.3	-12.2863
lab	-12.2868
agg	-12.2876
▁Tell	-12.2881
ransmission	-12.2885
▁OE	-12.2891
list	-12.2893
▁precedent	-12.2897
▁Ols	-12.2898
▁Reed	-12.2898
▁plac	-12.2899
▁Stor	-12.2903
▁Sr	-12.2904
▁Gua	-12.2906
▁Sve	-12.2908
arry	-12.2916
▁chase	-12.2917
▁Exc	-12.2921
▁Cul	-12.2931
itu	-12.2934
mmon	-12.2943
▁19.7	-12.2945
▁Moss	-12.2951
▁Grego	-12.2952
▁21.4	-12.2967
9.7	-12.2969
fe	-12.2974
▁Espec	-12.2975
▁217	-12.298
ocra	-12.2981
▁neutral	-12.2982
risco	-12.2996
▁Pon	-12.3008
wage	-12.3014
▁mi	-12.3022
pot	-12.3023
ura	-12.3024
▁Medic	-12.303
▁235	-12.3031
win	-12.3037
▁Bau	-12.3042
ector	-12.3047
42	-12.3049
▁Dillo	-12.3051
▁passe	-12.3054
sea	-12.3061
awmaker	-12.307
▁Bak	-12.3081
▁believ	-12.3102
itch	-12.3102
▁Sc	-12.3115
▁tail	-12.3116
tun	-12.3119
▁23.5	-12.3122
54	-12.3123
▁willful	-12.3126
▁stagna	-12.3128
oke	-12.3129
▁nest	-12.3132
lum	-12.3133
▁CRA	-12.3133
▁beverage	-12.3134
rk	-12.3136
▁Nad	-12.3157
iabetic	-12.3158
nthia	-12.316
▁sights	-12.3161
▁supervise	-12.3161
▁stockbroker	-12.3168
▁Sub	-12.3169
hler	-12.3173
▁shar	-12.3174
37	-12.3184
etails	-12.3185
evsk	-12.3186
▁hill	-12.3192
omb	-12.3199
je	-12.3202
▁Norwa	-12.3207
▁Help	-12.3211
hn	-12.3214
ash	-12.3218
▁Profits	-12.3226
▁Dav	-12.3228
▁Opera	-12.3229
bil	-12.3237
▁178.	-12.3237
doubted	-12.3242
enko	-12.3242
▁SU	-12.3246
cle	-12.3249
▁Wel	-12.3267
ano	-12.3267
▁shin	-12.3268
ilbur	-12.3272
▁devastati	-12.3287
name	-12.3289
round	-12.3292
▁flie	-12.331
▁equ	-12.3319
▁fatal	-12.3335
▁reassure	-12.334
▁mud	-12.3352
700	-12.3355
▁Marke	-12.3356
gap	-12.3359
dropp	-12.3361
pite	-12.3373
:	-12.3376
▁DE	-12.3378
megabyte	-12.3379
8.6	-12.3383
iddle	-12.3384
cassette	-12.3387
▁gran	-12.3388
butter	-12.3389
▁establishe	-12.3395
McG	-12.3395
▁Got	-12.3396
haul	-12.34
compatib	-12.3401
▁Tie	-12.3402
contract	-12.3404
toxic	-12.3405
rock	-12.3406
carbon	-12.3407
communist	-12.3409
inspire	-12.341
club	-12.341
establish	-12.3411
famous	-12.3411
▁mode	-12.3411
Eagle	-12.3411
Care	-12.3412
sensitive	-12.3412
shore	-12.3412
screen	-12.3413
Atlanti	-12.3413
electric	-12.3413
afternoon	-12.3414
impose	-12.3414
purpose	-12.3414
comfortabl	-12.3414
secretary	-12.3414
conduct	-12.3414
estimate	-12.3414
publishe	-12.3414
floor	-12.3415
finance	-12.3415
performance	-12.3415
support	-12.3416
box	-12.3416
policy	-12.3417
pick	-12.3417
cast	-12.3418
Rod	-12.3419
fish	-12.342
earth	-12.342
▁Commer	-12.342
inflation	-12.3421
undo	-12.3421
await	-12.3426
▁varie	-12.3431
▁247	-12.3432
▁FT	-12.3441
Pu	-12.3444
▁guns	-12.3447
5.2	-12.3448
▁exacerbate	-12.3451
moving	-12.3451
spend	-12.3455
fest	-12.3456
▁51-	-12.3459
basement	-12.3469
force	-12.347
▁13-	-12.3471
shot	-12.3475
five	-12.348
▁mate	-12.3482
ception	-12.3483
thletic	-12.3486
▁bite	-12.3491
greement	-12.3492
▁culminat	-12.3495
▁dock	-12.3497
efined	-12.3503
▁Alban	-12.3507
track	-12.3516
▁Era	-12.3521
▁Hold	-12.3522
▁applau	-12.3524
course	-12.3525
▁explod	-12.3527
▁Blu	-12.3529
DIC	-12.3531
uye	-12.3531
graph	-12.3531
▁frighten	-12.3533
▁constrain	-12.3538
▁atom	-12.3541
nuclear	-12.3541
▁overwhelm	-12.3542
▁Benefi	-12.3543
AST	-12.3543
rner	-12.3544
ogether	-12.3545
▁frequen	-12.3545
figure	-12.3547
lly	-12.3548
gro	-12.3548
▁musicians	-12.355
88	-12.3554
▁integrate	-12.3555
▁chill	-12.3559
2.7	-12.356
enberg	-12.3562
▁2,4	-12.3563
conciliat	-12.3563
trip	-12.3569
pate	-12.3571
880	-12.3576
dian	-12.3576
▁17.2	-12.3578
▁stumbl	-12.358
▁sack	-12.3582
▁surve	-12.3584
▁knee	-12.3584
▁Str	-12.3596
gma	-12.36
▁Seg	-12.3603
▁Anton	-12.3604
▁273	-12.3605
▁Mani	-12.3608
stitut	-12.3608
erch	-12.3612
boro	-12.3613
FC	-12.3617
ivor	-12.362
▁fertiliz	-12.3621
▁MIT	-12.3623
▁emotion	-12.3624
ogram	-12.3624
▁reinsur	-12.3624
▁robb	-12.3625
▁patron	-12.3629
▁Fat	-12.363
▁constitution	-12.3632
▁Meh	-12.3634
▁216	-12.3635
comb	-12.3638
▁exclusiv	-12.3639
▁40.1	-12.3639
trench	-12.3641
IM	-12.3642
▁flee	-12.3643
▁Guarant	-12.3648
television	-12.3648
viole	-12.3651
cott	-12.3654
▁recreation	-12.3655
▁Crim	-12.3656
▁deduct	-12.3657
eagan	-12.3658
udge	-12.3659
▁advent	-12.3659
ogna	-12.3659
▁GRA	-12.3659
39	-12.3661
▁grace	-12.3662
▁magnifi	-12.3662
▁pois	-12.3663
align	-12.3663
vacu	-12.3663
▁applica	-12.3663
loppy	-12.3664
▁hypothe	-12.3664
▁ambivalen	-12.3664
miscarriage	-12.3664
▁Beghin	-12.3664
▁Failure	-12.3664
▁Graduate	-12.3664
▁Milwaukee	-12.3664
▁Nutrition	-12.3664
▁Technical	-12.3664
▁Tigrean	-12.3664
▁YOU	-12.3664
▁abrasive	-12.3664
▁absurd	-12.3664
▁appraisal	-12.3664
▁blunder	-12.3664
▁brilliant	-12.3664
▁ceremon	-12.3664
▁civic	-12.3664
▁clarification	-12.3664
▁corporatis	-12.3664
▁crawl	-12.3664
▁culprit	-12.3664
▁demolish	-12.3664
▁disband	-12.3664
▁dissatisf	-12.3664
▁dwarf	-12.3664
▁explosive	-12.3664
▁eyebrow	-12.3664
▁hormone	-12.3664
▁intriguing	-12.3664
▁junior	-12.3664
▁landslide	-12.3664
▁ludicrous	-12.3664
▁molecular	-12.3664
▁molecule	-12.3664
▁monetarist	-12.3664
▁negligibl	-12.3664
▁obsolet	-12.3664
▁occupation	-12.3664
▁perfume	-12.3664
▁quadrupl	-12.3664
▁receptor	-12.3664
▁rescission	-12.3664
▁skittish	-12.3664
▁stalwart	-12.3664
▁stomach	-12.3664
▁submarine	-12.3664
▁swamp	-12.3664
▁tragic	-12.3664
▁transcript	-12.3664
▁triumph	-12.3664
▁unofficial	-12.3664
▁virtue	-12.3664
▁Bicycl	-12.3664
▁Edgar	-12.3664
▁disdain	-12.3664
▁occupan	-12.3664
▁refra	-12.3664
▁Empire	-12.3664
▁Moslem	-12.3664
▁Success	-12.3664
▁clobber	-12.3664
▁conduit	-12.3664
▁dentist	-12.3664
▁frantic	-12.3664
▁sentencing	-12.3664
▁tarnish	-12.3664
▁Senior	-12.3664
▁Yamatake	-12.3664
▁complement	-12.3664
▁leisure	-12.3664
▁Geoffr	-12.3664
▁Increasing	-12.3664
▁overhang	-12.3664
▁paralyz	-12.3664
▁affirmative	-12.3664
▁Fiscal	-12.3664
▁cocktail	-12.3664
▁sidewalk	-12.3664
▁Diamond	-12.3664
▁nuance	-12.3664
▁sneak	-12.3664
▁Anchor	-12.3664
▁Earthquake	-12.3664
▁lobbie	-12.3664
▁aerobic	-12.3664
▁discredit	-12.3664
▁smash	-12.3664
▁vegetable	-12.3664
▁pediatric	-12.3664
▁hunk	-12.3664
▁microcomputer	-12.3664
▁mull	-12.3664
▁Fleisch	-12.3664
▁contempt	-12.3664
▁hawk	-12.3664
▁affirm	-12.3664
▁loot	-12.3664
▁reformulat	-12.3664
▁glitz	-12.3664
▁juice	-12.3664
▁mysterious	-12.3664
▁rehabilitat	-12.3664
▁knot	-12.3664
▁Photo	-12.3664
▁bolt	-12.3664
▁McGill	-12.3664
▁rivet	-12.3664
▁DRA	-12.3664
▁Dubin	-12.3664
▁breakthrough	-12.3665
▁plaid	-12.3665
DUS	-12.3665
enchant	-12.3665
▁penetrate	-12.3665
▁Pepper	-12.3665
▁superpower	-12.3665
▁consequent	-12.3665
▁hub	-12.3665
▁Nucor	-12.3665
▁dwelling	-12.3665
▁horror	-12.3665
▁subtle	-12.3665
▁watt	-12.3665
▁dismay	-12.3665
▁covet	-12.3665
▁fluid	-12.3665
▁northeast	-12.3665
▁correspondent	-12.3665
▁disapprov	-12.3665
▁condominium	-12.3665
▁festival	-12.3665
▁quack	-12.3665
▁masseur	-12.3665
▁Team	-12.3665
▁foam	-12.3665
▁cream	-12.3665
IEF	-12.3665
▁simplify	-12.3665
▁Prize	-12.3665
▁verbal	-12.3665
▁apparat	-12.3665
▁comparative	-12.3666
▁disabilit	-12.3666
▁Veter	-12.3666
▁autograph	-12.3666
▁fiction	-12.3666
▁slogan	-12.3666
▁ONE	-12.3666
▁extradition	-12.3666
▁hammer	-12.3666
▁impair	-12.3666
▁doctrine	-12.3666
▁vocal	-12.3666
▁Eurobond	-12.3666
▁Verit	-12.3666
▁rewrit	-12.3666
▁Depression	-12.3666
▁fastener	-12.3666
megabi	-12.3666
▁Leigh	-12.3666
ARCO	-12.3666
▁Edu	-12.3666
▁poet	-12.3666
▁crane	-12.3666
▁premise	-12.3667
▁dislike	-12.3667
abortionist	-12.3667
▁termination	-12.3667
▁hog	-12.3667
▁Suc	-12.3667
▁Hyde	-12.3667
▁benig	-12.3667
▁sensational	-12.3667
▁classroom	-12.3667
▁Settlement	-12.3667
▁psychologist	-12.3667
▁booth	-12.3667
▁twin	-12.3667
▁revel	-12.3667
▁dune	-12.3667
▁Touris	-12.3667
▁Detr	-12.3668
▁Reich	-12.3668
▁contingen	-12.3668
▁Champion	-12.3668
▁vanish	-12.3668
▁plight	-12.3668
▁spectator	-12.3669
▁colonial	-12.3669
▁Beaver	-12.3669
▁destination	-12.3669
▁hiker	-12.3669
,120	-12.3669
▁exit	-12.3669
▁discharge	-12.3669
▁fence	-12.367
▁mouse	-12.367
▁enforc	-12.367
▁irk	-12.367
▁microscop	-12.367
▁tele	-12.3671
▁graceful	-12.3671
▁Jake	-12.3671
CSF	-12.3671
▁muse	-12.3671
▁imperial	-12.3671
▁centuri	-12.3671
▁logo	-12.3671
▁Pega	-12.3672
▁township	-12.3672
ozell	-12.3672
▁Acad	-12.3672
▁Century	-12.3673
▁envision	-12.3673
▁425,000	-12.3673
▁24.8	-12.3673
▁Flight	-12.3674
▁Father	-12.3674
▁McMa	-12.3674
▁nomination	-12.3674
racket	-12.3674
wire	-12.3675
▁Tart	-12.3675
▁entitlement	-12.3675
▁underpin	-12.3675
▁pave	-12.3676
▁historian	-12.3676
▁Elliot	-12.3677
▁suspicion	-12.3677
▁feminist	-12.3677
▁vehement	-12.3677
▁orchard	-12.3678
▁duo	-12.3678
inz	-12.3678
▁emb	-12.3679
▁Gargan	-12.3679
▁1962	-12.368
▁Train	-12.368
▁Boise	-12.368
▁commentator	-12.3681
ahl	-12.3681
▁Aik	-12.3681
▁Beam	-12.3681
▁Hath	-12.3682
▁disarm	-12.3682
▁1990-200	-12.3682
▁Suz	-12.3683
▁cache	-12.3683
nam	-12.3684
▁dishonest	-12.3684
pshoot	-12.3685
▁expedite	-12.3685
▁canvas	-12.3685
▁Sidley	-12.3685
▁servant	-12.3686
ELL	-12.3686
▁49.9	-12.3686
▁Creat	-12.3686
your	-12.3686
▁crook	-12.3687
auts	-12.3687
▁Tana	-12.3687
▁unaware	-12.3688
▁Head	-12.3688
▁enlist	-12.3688
▁Taco	-12.3689
06	-12.3689
▁Off	-12.3689
jara	-12.369
▁Score	-12.3691
▁birthday	-12.3692
▁tapes	-12.3692
▁slacken	-12.3692
▁rhythm	-12.3692
▁Iraq	-12.3692
▁inflict	-12.3692
▁scotch	-12.3692
▁plausibl	-12.3692
▁intolerabl	-12.3692
▁ventilat	-12.3692
▁Stalinis	-12.3692
▁breast	-12.3693
Conne	-12.3693
mnib	-12.3693
olation	-12.3694
▁classical	-12.3695
▁stirr	-12.3695
gins	-12.3695
toba	-12.3695
▁ghostbust	-12.3696
▁grass	-12.3696
▁rum	-12.3696
▁Fior	-12.3696
▁starv	-12.3697
▁UNI	-12.3698
▁Pierre	-12.3698
▁Este	-12.3699
▁tide	-12.37
▁achievement	-12.3702
▁Brewer	-12.3702
▁Hyp	-12.3702
▁14.3	-12.3702
▁NEWS	-12.3702
▁Pizz	-12.3703
▁Postel	-12.3703
▁contention	-12.3704
▁insult	-12.3705
▁deterr	-12.3705
▁salt	-12.3705
▁25.8	-12.3706
alis	-12.3706
▁Huber	-12.3706
▁integrat	-12.3707
ladder	-12.3708
lounge	-12.3709
urn	-12.3709
▁Aga	-12.371
▁Amer	-12.3711
dsmo	-12.3711
TRI	-12.3711
▁Sik	-12.3715
oodle	-12.3715
▁Month	-12.3716
▁resurgen	-12.3716
▁Leu	-12.3717
▁Shale	-12.3718
▁Rho	-12.3721
▁belt	-12.3722
▁Cambodian	-12.3722
virulen	-12.3723
▁Atkins	-12.3724
▁Chile	-12.3724
lusive	-12.3725
▁directive	-12.3727
▁163	-12.3728
▁Tenne	-12.3728
▁priva	-12.373
hige	-12.373
▁lapse	-12.3731
▁sunk	-12.3731
▁hopeless	-12.3732
ueen	-12.3733
▁arb	-12.3733
▁380	-12.3733
▁costume	-12.3738
▁resolv	-12.374
▁crystal	-12.374
▁STOCK	-12.374
▁Baa	-12.3741
azz	-12.3741
▁Beta	-12.3741
▁contingency	-12.3741
▁Parkway	-12.3742
CK	-12.3743
▁blink	-12.3744
▁moon	-12.3744
▁tract	-12.3745
▁Athen	-12.3746
▁Thal	-12.3749
▁Richardson	-12.3749
▁stumble	-12.3749
▁whip	-12.375
▁bomber	-12.3752
▁Claim	-12.3752
▁STO	-12.3752
▁panick	-12.3753
▁168	-12.3754
nition	-12.3755
▁Wich	-12.3755
▁Wales	-12.3756
▁architectural	-12.376
▁45,000	-12.376
Med	-12.3764
▁Sino	-12.3766
▁162	-12.377
▁programmer	-12.3772
▁racis	-12.3772
▁Customer	-12.3772
▁Cather	-12.3774
▁satisfactor	-12.3779
▁Imp	-12.3781
▁yell	-12.3783
▁Pier	-12.3784
Forge	-12.3784
▁Disab	-12.3786
▁transit	-12.3787
▁Bachman	-12.3787
▁114	-12.3787
▁tacked	-12.3787
▁skirt	-12.3792
▁Emery	-12.3794
tners	-12.3795
▁PRI	-12.3796
rctic	-12.3796
▁Nora	-12.3797
▁Cas	-12.3797
▁chilling	-12.3801
▁Reader	-12.3801
▁arter	-12.3804
▁Mel	-12.3812
▁cola	-12.3815
▁spar	-12.3821
▁Bren	-12.3823
▁intens	-12.3824
▁boundar	-12.3828
▁baker	-12.3829
▁releas	-12.3832
▁populis	-12.3832
athed	-12.3833
▁Lum	-12.3837
bar	-12.3837
▁loft	-12.3839
▁taxi	-12.3841
▁endangered	-12.3843
▁rebellio	-12.3844
▁Weir	-12.3845
▁504	-12.3845
▁perk	-12.3847
▁flier	-12.3848
▁Avi	-12.3848
▁opportunist	-12.385
brake	-12.3851
▁barn	-12.3862
▁commander	-12.3862
rangl	-12.3864
ife	-12.3865
rkla	-12.3866
▁intermediate	-12.3872
▁faction	-12.3875
auer	-12.388
berge	-12.3883
▁Gute	-12.3884
▁220	-12.3891
▁deepen	-12.3896
▁Name	-12.3899
▁Cover	-12.3902
istance	-12.3911
▁154	-12.3913
▁Alce	-12.3926
▁prow	-12.3928
▁incompetent	-12.3929
DD	-12.393
▁fractional	-12.3939
▁devastat	-12.3939
early	-12.394
▁Reproducti	-12.3941
position	-12.3941
▁endless	-12.3943
▁15.3	-12.3947
▁Crav	-12.395
ACI	-12.3957
arrett	-12.3961
▁reinvested	-12.3968
mmy	-12.3969
▁Sevent	-12.3971
rode	-12.3973
▁menu	-12.3974
▁log	-12.3975
hman	-12.3984
ID	-12.3985
ppe	-12.3985
working	-12.3998
▁inept	-12.4
▁1,8	-12.4001
▁mania	-12.4001
flamma	-12.4014
▁GAS	-12.4016
riz	-12.4017
▁butter	-12.4019
▁advancer	-12.4021
zy	-12.4025
▁amus	-12.4026
▁Ameri	-12.4029
▁pervers	-12.4031
shu	-12.4036
▁Prov	-12.4043
asket	-12.4044
▁2.62	-12.4044
HA	-12.4047
apa	-12.4057
toria	-12.4062
▁121	-12.4068
62.9	-12.4069
▁imagin	-12.407
▁Pry	-12.407
▁Swan	-12.4074
aco	-12.4074
LD	-12.4075
▁Harlan	-12.4085
fin	-12.4089
▁Hoy	-12.4093
▁precis	-12.4093
elease	-12.4095
▁AC	-12.4095
▁Stre	-12.4097
▁Scha	-12.4099
▁Donnell	-12.4101
bbie	-12.4101
▁commercializ	-12.4108
▁1.43	-12.4108
▁wag	-12.412
far	-12.412
ARE	-12.4125
▁cock	-12.4125
86	-12.4127
▁Enr	-12.4137
▁sporting	-12.414
▁Operati	-12.4141
▁Atla	-12.4141
▁Jess	-12.4142
uro	-12.4145
▁Lave	-12.4148
▁142.7	-12.4154
iti	-12.4159
her	-12.417
▁poster	-12.417
cept	-12.4174
swag	-12.4182
rose	-12.4183
▁Beal	-12.4184
cart	-12.4186
nbaum	-12.4187
kosh	-12.4189
uff	-12.4191
▁sel	-12.4191
ENT	-12.4215
▁8.47	-12.4217
▁crumble	-12.4227
keeps	-12.4236
fense	-12.4237
ptu	-12.4239
▁142.4	-12.4248
▁deteriorate	-12.4252
oyle	-12.4253
62	-12.4254
und	-12.4257
▁don	-12.4272
arcel	-12.4274
rney	-12.4275
sales	-12.4276
▁chairm	-12.4278
▁accountab	-12.428
▁devot	-12.4292
▁Perc	-12.4295
lfred	-12.4296
▁14.7	-12.4298
ace	-12.4299
abell	-12.4309
▁solvent	-12.4314
ational	-12.4315
▁fl	-12.4316
▁Marin	-12.4317
ask	-12.4318
▁Lon	-12.4323
LE	-12.4326
rison	-12.434
▁smile	-12.434
▁monst	-12.434
ullin	-12.4341
ruit	-12.4351
▁Vari	-12.4354
▁386	-12.4365
entry	-12.4368
92	-12.437
ulp	-12.4373
ENER	-12.4376
▁exceptional	-12.4381
▁wit	-12.4388
44	-12.4388
Frere	-12.4392
▁ego	-12.4394
olina	-12.4398
▁dictat	-12.4411
UM	-12.4412
▁Nova	-12.4419
▁celebrate	-12.4424
agua	-12.4426
afra	-12.4426
▁Bru	-12.4427
urgeon	-12.4432
17.6	-12.4435
▁wishe	-12.4436
▁Seven	-12.4438
▁Batte	-12.4439
mov	-12.444
binge	-12.4446
▁122	-12.4446
▁preten	-12.4456
50	-12.446
FE	-12.446
▁3.52	-12.4461
▁forbidding	-12.4465
▁antiqu	-12.4466
▁Sk	-12.4468
omba	-12.4469
bodie	-12.4475
▁ambula	-12.4475
ovan	-12.4479
▁Win	-12.448
slab	-12.4488
▁Gal	-12.449
▁fle	-12.4498
▁231	-12.4508
▁Isle	-12.4514
▁Automat	-12.4515
Va	-12.4524
▁immunit	-12.4526
▁1,01	-12.4529
▁undergo	-12.4533
fa	-12.4551
▁merchandis	-12.4552
rtz	-12.4558
▁thinne	-12.4566
▁motivate	-12.4572
▁9.1	-12.4578
OW	-12.4578
▁1.55	-12.458
▁17.9	-12.4583
aster	-12.4587
▁Dod	-12.4591
▁miner	-12.4593
▁sore	-12.4593
now	-12.4596
▁279	-12.4601
,850	-12.4617
ime	-12.4619
torial	-12.4621
▁Bard	-12.4627
unk	-12.4639
▁launche	-12.464
▁Pleas	-12.4654
▁gra	-12.4662
flation	-12.4664
enuous	-12.4672
lix	-12.4689
▁medi	-12.4696
▁13.3	-12.4705
MAN	-12.4706
xe	-12.4711
▁Parso	-12.4711
▁Canel	-12.4715
tant	-12.4727
▁57-	-12.4739
▁47-	-12.4754
▁MA	-12.4757
▁Fly	-12.4759
74	-12.4759
▁que	-12.4778
▁323	-12.4781
▁briefing	-12.4782
▁wise	-12.4795
▁Rememb	-12.4813
▁dictate	-12.4817
esque	-12.4821
▁aw	-12.4827
bid	-12.4832
▁Conl	-12.4844
determin	-12.4862
▁7.37	-12.4864
▁admitt	-12.4865
dress	-12.4865
▁Rum	-12.4882
occupie	-12.4885
▁aggravate	-12.4888
▁Indo	-12.4896
▁Fu	-12.4896
▁120-	-12.49
▁Lack	-12.49
aph	-12.4904
▁meter	-12.4905
▁examin	-12.4913
▁Wor	-12.4916
aba	-12.4918
rott	-12.4923
▁Ham	-12.4927
▁pal	-12.4927
dropper	-12.494
▁11.9	-12.494
▁Driv	-12.494
▁17.5	-12.4941
ester	-12.4944
▁Flemi	-12.4945
OA	-12.4952
airfield	-12.4954
scu	-12.4957
AE	-12.4958
9.32	-12.4962
sica	-12.4962
▁dat	-12.4966
▁Legislat	-12.498
▁Rick	-12.4983
▁reviv	-12.4986
LI	-12.4999
▁Holt	-12.5
▁para	-12.5015
▁161	-12.5017
▁Bosti	-12.5035
▁Unification	-12.5047
▁16.3	-12.5061
▁cosmetic	-12.5064
▁Due	-12.5064
TER	-12.5066
▁Ries	-12.5072
▁amortiz	-12.5074
lade	-12.5077
▁18.4	-12.5078
anza	-12.5083
▁157	-12.5087
▁prais	-12.5087
▁Cher	-12.5088
ami	-12.5092
oli	-12.5094
nza	-12.5095
▁McC	-12.5096
▁facilitat	-12.5097
lac	-12.5098
AD	-12.5127
ui	-12.5143
▁Isa	-12.5143
▁Cit	-12.5149
▁captur	-12.5151
▁2,20	-12.5152
▁communication	-12.5154
▁reiterate	-12.5157
-200	-12.5159
uki	-12.5161
▁brun	-12.5174
In	-12.5179
rask	-12.5182
▁domin	-12.5191
▁minimalis	-12.5193
▁rand	-12.5196
▁flame	-12.52
▁mandat	-12.5208
▁Cur	-12.5209
ilitary	-12.5214
▁governors	-12.5215
▁Vanit	-12.5223
clo	-12.5229
▁relocati	-12.5232
PAN	-12.5234
cross	-12.5238
rium	-12.5243
▁predictab	-12.5261
shi	-12.5264
▁Harpe	-12.5268
▁Hugh	-12.5272
motion	-12.5275
report	-12.5285
▁49-	-12.5287
▁summar	-12.5289
▁Lub	-12.5292
▁stimulat	-12.5295
pit	-12.5305
▁368.	-12.5306
migration	-12.5308
IR	-12.5311
▁48-	-12.5314
▁revolv	-12.5315
▁dish	-12.5318
▁330	-12.5331
▁relation	-12.5333
▁99.6	-12.5336
▁ten	-12.5342
engine	-12.5347
uth	-12.5348
FP	-12.535
▁182	-12.5354
▁Haw	-12.5355
▁unsc	-12.5355
▁moderniz	-12.5357
break	-12.5359
plic	-12.5362
▁Won	-12.5369
uke	-12.5372
▁DD	-12.5374
▁Alexandri	-12.5375
▁Flor	-12.5382
inority	-12.5385
ull	-12.5394
rek	-12.5397
▁resembl	-12.5399
shirt	-12.5401
educat	-12.5402
classifie	-12.5403
float	-12.5405
▁ambigu	-12.5405
approve	-12.5407
profile	-12.5407
smoking	-12.5409
stroke	-12.541
infect	-12.541
punish	-12.541
casualty	-12.541
missile	-12.5411
Shell	-12.5411
fri	-12.5413
penalt	-12.5413
paper	-12.5413
Technology	-12.5414
Phillip	-12.5414
regard	-12.5414
competitive	-12.5414
explain	-12.5415
majority	-12.5415
manufacturing	-12.5415
practice	-12.5415
standard	-12.5415
amount	-12.5415
budget	-12.5415
First	-12.5416
world	-12.5416
block	-12.5416
Japanese	-12.5416
circuit	-12.5416
general	-12.5416
New	-12.5418
buying	-12.5418
creation	-12.5418
match	-12.5419
chairman	-12.5419
before	-12.5422
executive	-12.5424
chang	-12.5424
GM	-12.5429
predictabl	-12.5431
million	-12.5435
session	-12.5436
▁governmental	-12.5437
relevan	-12.5438
shell	-12.5438
▁wip	-12.5445
▁conditional	-12.5446
media	-12.5447
▁cla	-12.5448
count	-12.5449
▁flex	-12.5453
▁Pic	-12.5453
inda	-12.5455
▁bans	-12.5455
25,000	-12.5456
For	-12.5456
▁McN	-12.5462
dividend	-12.5463
NS	-12.5465
▁165	-12.5474
▁novelist	-12.5483
▁slee	-12.5485
▁Buck	-12.5496
ctica	-12.5506
▁Cra	-12.551
RI	-12.5512
uan	-12.5512
▁134	-12.5514
stride	-12.5518
▁tack	-12.5519
pill	-12.5519
kill	-12.5519
uld	-12.5519
▁540	-12.5532
aga	-12.5532
▁incompeten	-12.5536
treat	-12.5536
▁happi	-12.5538
▁resum	-12.5543
▁budge	-12.5545
▁Hun	-12.5545
▁patien	-12.5546
▁ram	-12.5548
aja	-12.5548
rdin	-12.555
▁evolv	-12.5552
▁Wha	-12.5553
▁575	-12.5557
▁11.6	-12.5561
▁14.5	-12.5566
reported	-12.5569
178	-12.5571
lim	-12.5573
▁Phi	-12.5574
about	-12.5574
83.2	-12.5575
MB	-12.5575
▁MAC	-12.5577
▁Politic	-12.5581
▁bankruptc	-12.5586
rranti	-12.5586
BA	-12.5587
Roth	-12.5587
Say	-12.5594
▁automat	-12.5594
▁astron	-12.5599
ante	-12.5604
▁27.1	-12.5604
NO	-12.5604
alog	-12.5604
CNB	-12.5609
▁futur	-12.5611
prov	-12.5621
▁distill	-12.5625
▁Municipals	-12.5627
2.3	-12.5628
▁Bia	-12.5628
▁Arch	-12.5631
▁cho	-12.5634
MENT	-12.5636
▁137	-12.5638
BEA	-12.5638
▁rag	-12.5641
iegle	-12.5641
rho	-12.5643
▁Lad	-12.5645
▁Hondura	-12.5645
▁Bulgaria	-12.5647
▁Libya	-12.5648
CIO	-12.5649
greedy	-12.5651
▁deductib	-12.5653
unu	-12.5653
▁suspicio	-12.5654
▁wrap	-12.5654
▁brow	-12.5655
▁Continent	-12.5655
▁defi	-12.5656
▁elevat	-12.5656
variabl	-12.5657
ito	-12.5658
▁implicat	-12.5658
paste	-12.5659
OY	-12.566
▁ratifi	-12.5661
▁ST	-12.5661
▁judicia	-12.5661
bearing	-12.5661
eginning	-12.5662
▁bod	-12.5662
▁accura	-12.5662
▁candida	-12.5662
▁legitima	-12.5662
▁diagnosi	-12.5662
▁Secret	-12.5663
nsequent	-12.5663
tinent	-12.5663
▁80%-	-12.5664
▁Ikegai	-12.5664
▁commemorat	-12.5664
Wuerttemb	-12.5664
ilgrim	-12.5664
▁Convention	-12.5664
▁Czech	-12.5664
▁Gabriel	-12.5664
▁Kawasaki	-12.5664
▁Kimberly	-12.5664
▁Protestant	-12.5664
▁Register	-12.5664
▁Soybean	-12.5664
▁Spirit	-12.5664
▁Stovall	-12.5664
▁brigade	-12.5664
▁brochure	-12.5664
▁clutch	-12.5664
▁convenient	-12.5664
▁covenant	-12.5664
▁delinquent	-12.5664
▁dread	-12.5664
▁erratic	-12.5664
▁erroneous	-12.5664
▁escrow	-12.5664
▁flourish	-12.5664
▁fluctuate	-12.5664
▁fountain	-12.5664
▁immense	-12.5664
▁increment	-12.5664
▁ingredient	-12.5664
▁magistrate	-12.5664
▁metallurg	-12.5664
▁muni	-12.5664
▁nameplate	-12.5664
▁neurologist	-12.5664
▁ominous	-12.5664
▁peanut	-12.5664
▁peculiar	-12.5664
▁porcelain	-12.5664
▁prejudice	-12.5664
▁primitive	-12.5664
▁psychiatr	-12.5664
▁reaffirm	-12.5664
▁religion	-12.5664
▁resilient	-12.5664
▁reverberat	-12.5664
▁sequel	-12.5664
▁siphon	-12.5664
▁sprawl	-12.5664
▁subcompact	-12.5664
▁trumpet	-12.5664
▁videotape	-12.5664
▁Coffee	-12.5664
▁FINANC	-12.5664
▁HEALTH	-12.5664
▁Traffic	-12.5664
▁Tropic	-12.5664
▁boutique	-12.5664
▁catheter	-12.5664
▁circumvent	-12.5664
▁dramatization	-12.5664
▁faint	-12.5664
▁garbage	-12.5664
▁miscalculat	-12.5664
▁misinterpret	-12.5664
▁relish	-12.5664
▁shrewd	-12.5664
collegia	-12.5664
▁Cardinal	-12.5664
▁Continu	-12.5664
▁Pencil	-12.5664
▁cancellation	-12.5664
▁closure	-12.5664
▁decentraliz	-12.5664
▁logistics	-12.5664
▁seminar	-12.5664
▁feasib	-12.5664
▁tacit	-12.5664
▁windshield	-12.5664
▁Escort	-12.5664
▁stabb	-12.5664
▁surtax	-12.5664
▁unnerv	-12.5664
▁Islam	-12.5664
▁destabiliz	-12.5664
▁prostitute	-12.5664
▁Matsushita	-12.5664
▁paragraph	-12.5664
▁rebut	-12.5664
▁Reason	-12.5664
▁Resort	-12.5664
▁Traditional	-12.5664
▁motive	-12.5664
▁thirty	-12.5664
erbera	-12.5664
leukin	-12.5664
▁feud	-12.5664
▁intensifie	-12.5664
ercussion	-12.5664
▁Yoshi	-12.5664
▁snake	-12.5664
▁trait	-12.5664
▁masseuse	-12.5664
▁ploy	-12.5664
▁Chicken	-12.5664
▁disgr	-12.5664
▁inexorabl	-12.5664
▁czar	-12.5664
24,8	-12.5664
▁Samsung	-12.5664
▁cookbook	-12.5664
▁sanitation	-12.5664
▁Thermo	-12.5664
cliff	-12.5664
▁Pilot	-12.5664
▁Valentin	-12.5664
▁slamme	-12.5664
▁cartridge	-12.5664
▁inaccurate	-12.5664
▁cousin	-12.5664
▁grape	-12.5664
▁Caesar	-12.5664
▁extrusion	-12.5664
▁decima	-12.5664
▁Scull	-12.5664
▁kingpin	-12.5664
▁flesh	-12.5664
▁terra	-12.5664
▁Krishna	-12.5665
▁Studio	-12.5665
anemia	-12.5665
▁passionate	-12.5665
▁Nikon	-12.5665
▁Newspaper	-12.5665
▁mound	-12.5665
▁minicar	-12.5665
▁rejoin	-12.5665
▁underperform	-12.5665
▁lurch	-12.5665
▁chante	-12.5665
▁Munich	-12.5665
▁anchor	-12.5665
▁dispel	-12.5665
▁Timber	-12.5665
▁Rawl	-12.5665
▁yacht	-12.5665
haw	-12.5665
▁Collect	-12.5665
▁counterbid	-12.5665
▁whipsaw	-12.5665
▁ninth	-12.5665
▁Witness	-12.5665
▁COMPAN	-12.5665
▁revert	-12.5665
▁clarinet	-12.5665
gulf	-12.5665
▁fetus	-12.5665
ipher	-12.5665
▁Metam	-12.5665
▁indebted	-12.5665
▁liberalization	-12.5665
welve	-12.5665
▁Hatch	-12.5666
▁packet	-12.5666
▁banana	-12.5666
▁Grim	-12.5666
ucci	-12.5666
▁annoy	-12.5666
▁void	-12.5666
▁cogeneration	-12.5666
▁Visit	-12.5666
▁decree	-12.5666
▁wander	-12.5666
▁pleasant	-12.5666
▁Carbon	-12.5666
mponent	-12.5666
▁Gerard	-12.5666
▁Lomb	-12.5666
▁paycheck	-12.5666
▁Mulro	-12.5667
▁turban	-12.5667
▁embroi	-12.5667
▁Regard	-12.5667
▁depart	-12.5667
▁Rubel	-12.5667
▁complication	-12.5667
▁furious	-12.5667
▁ceme	-12.5667
▁braw	-12.5667
▁pacemaker	-12.5667
▁overthrow	-12.5667
▁pause	-12.5667
▁replay	-12.5667
▁Shore	-12.5668
▁Wagg	-12.5668
▁Cortes	-12.5668
▁counterclaim	-12.5668
▁Strau	-12.5668
▁hoard	-12.5668
▁detain	-12.5668
▁Deep	-12.5668
lund	-12.5668
▁Half	-12.5668
▁pianist	-12.5668
▁subtract	-12.5668
riminal	-12.5668
▁peripheral	-12.5669
▁intrude	-12.5669
▁disintegrat	-12.5669
▁preview	-12.5669
siege	-12.5669
▁plow	-12.5669
▁Rifkin	-12.5669
▁ensu	-12.567
rcade	-12.567
▁hospitalization	-12.567
sahi	-12.5671
▁roil	-12.5671
tosh	-12.5671
▁Leverage	-12.5671
▁substanti	-12.5671
▁Writ	-12.5671
▁Lieber	-12.5671
▁Castle	-12.5671
▁Ruff	-12.5671
▁Pride	-12.5671
▁drawback	-12.5671
▁detective	-12.5671
▁Electron	-12.5671
▁Batch	-12.5672
▁Cobb	-12.5672
▁Concer	-12.5672
▁giveaway	-12.5672
▁artwork	-12.5672
▁fatten	-12.5673
▁logg	-12.5673
▁Artist	-12.5673
igolo	-12.5673
▁crown	-12.5673
▁Elk	-12.5673
▁picket	-12.5674
▁chopp	-12.5674
▁SKr	-12.5674
▁22.6	-12.5674
▁4.07	-12.5674
▁misde	-12.5675
▁outbreak	-12.5675
raven	-12.5675
▁Insider	-12.5675
▁1.614	-12.5675
▁drugstore	-12.5676
▁Recover	-12.5676
▁stapl	-12.5676
VC	-12.5677
▁Rowland	-12.5677
▁Sci	-12.5677
▁Carew	-12.5679
▁furnish	-12.568
▁delet	-12.568
8.9	-12.568
▁Vision	-12.568
▁slot	-12.568
isease	-12.568
▁narcot	-12.568
▁eloquent	-12.568
▁progressive	-12.5681
▁Gog	-12.5681
▁railway	-12.5681
pita	-12.5681
Tate	-12.5681
▁1,300	-12.5681
▁Hawaiian	-12.5681
rusade	-12.5682
▁Gabel	-12.5682
▁chest	-12.5682
▁donor	-12.5682
▁Stin	-12.5683
▁merc	-12.5683
▁Shul	-12.5683
▁Helen	-12.5684
▁compliment	-12.5684
▁1,100	-12.5684
▁HAS	-12.5684
▁sucker	-12.5684
▁176	-12.5685
▁symbolic	-12.5685
▁Taxation	-12.5685
▁originate	-12.5685
▁slick	-12.5685
6,5	-12.5685
▁resin	-12.5686
▁Forrest	-12.5686
lchri	-12.5687
▁DAR	-12.5688
▁emer	-12.5688
▁Bax	-12.5689
▁outpace	-12.5689
▁roar	-12.5689
▁anonymous	-12.5689
▁queen	-12.5689
▁hobbl	-12.5689
▁Juni	-12.569
ction	-12.569
pponent	-12.5691
▁Oka	-12.5692
▁gangs	-12.5692
▁Chip	-12.5692
▁Leche	-12.5692
▁fisher	-12.5692
▁Adolph	-12.5693
▁2.79	-12.5693
▁admir	-12.5693
▁wrestl	-12.5693
umberg	-12.5693
▁gall	-12.5694
▁calculator	-12.5694
▁527	-12.5694
▁propulsi	-12.5694
▁cynical	-12.5695
▁Namibia	-12.5695
▁jar	-12.5696
▁analog	-12.5696
▁magnet	-12.5697
▁Plain	-12.5697
▁Fuel	-12.5698
▁adjudicator	-12.5699
▁congratulat	-12.5699
▁allotment	-12.5699
▁309	-12.5699
▁Freud	-12.5699
anium	-12.57
▁LaB	-12.57
▁qualifie	-12.57
ashion	-12.57
▁Bang	-12.57
▁shipbuild	-12.5701
▁Dog	-12.5701
▁dare	-12.5701
▁foreclos	-12.5702
▁Cash	-12.5702
▁Hollist	-12.5702
▁tangle	-12.5703
▁Sala	-12.5703
▁Bark	-12.5703
▁Dodger	-12.5704
mbing	-12.5705
▁spreads	-12.5706
▁Lag	-12.5708
▁torn	-12.5708
▁assertion	-12.5709
▁44.3	-12.5709
oid	-12.5711
▁12:0	-12.5712
▁distiller	-12.5712
▁spurn	-12.5714
▁laud	-12.5715
▁geograph	-12.5715
▁Param	-12.5715
▁Rush	-12.5715
▁reseller	-12.5717
efront	-12.5717
▁proto	-12.5717
▁jamm	-12.5719
▁Denn	-12.5721
▁Gaul	-12.5722
▁reshap	-12.5722
fact	-12.5723
▁43.3	-12.5723
▁Frau	-12.5724
▁Pact	-12.5724
▁453	-12.5725
reate	-12.5726
▁swear	-12.5727
▁14.1	-12.5728
ebenture	-12.5729
saving	-12.573
▁Insight	-12.573
▁Gann	-12.5731
▁Hersh	-12.5733
zer	-12.5736
,070	-12.5737
▁rendering	-12.5738
▁452	-12.5739
▁Pete	-12.5739
warm	-12.5741
▁Push	-12.5741
etric	-12.5742
AV	-12.5744
▁Gill	-12.5744
▁mitigat	-12.5744
▁Scal	-12.5745
▁Harley	-12.5746
▁242	-12.5746
▁Older	-12.575
▁honey	-12.575
▁Smithson	-12.5751
avo	-12.5754
▁Hach	-12.5755
zw	-12.5756
▁commerc	-12.5756
ci	-12.5757
▁reassuring	-12.5758
▁ravage	-12.5759
▁Watergate	-12.576
▁4\/	-12.576
▁copier	-12.576
rge	-12.5761
▁kickback	-12.5762
▁helm	-12.5768
▁Jaff	-12.577
reparation	-12.577
zin	-12.5773
cla	-12.5773
▁divest	-12.5773
▁juri	-12.5773
▁Shin	-12.5774
▁allay	-12.5774
▁219	-12.5775
▁Rost	-12.5775
▁Letter	-12.5775
▁lengthen	-12.5777
▁evolve	-12.5778
65,000	-12.5779
▁Hori	-12.5779
▁Higher	-12.5779
▁commend	-12.5781
▁Rule	-12.5782
▁Jacques	-12.5784
claims	-12.5785
▁generator	-12.5785
▁350,000	-12.5786
▁ju	-12.5787
▁mason	-12.5789
touch	-12.5789
▁associat	-12.5789
▁Gum	-12.579
lice	-12.5792
▁Station	-12.5792
▁operative	-12.5793
▁Gir	-12.5796
▁Tex	-12.5797
▁quarterback	-12.5798
▁NK	-12.5799
▁252	-12.5799
▁DJ	-12.5801
▁Music	-12.5802
ruff	-12.5805
ushk	-12.5813
▁Beneficia	-12.5815
▁tur	-12.5815
lders	-12.5815
▁Malone	-12.5815
▁bode	-12.5816
▁Schwe	-12.5817
▁Hard	-12.5818
-7	-12.5821
49.4	-12.5821
▁wield	-12.5821
▁rattle	-12.5821
▁depth	-12.5821
▁subscription	-12.5821
▁Laugh	-12.5823
▁Less	-12.5824
▁Kai	-12.5825
▁frightening	-12.5827
▁suppress	-12.5829
adventure	-12.5829
▁Lance	-12.583
▁wool	-12.5831
▁Brunswi	-12.5833
matic	-12.5833
▁RT	-12.584
▁Giff	-12.5843
▁visib	-12.5844
moto	-12.5844
▁Buckle	-12.585
eduction	-12.585
emina	-12.5853
▁nerd	-12.5854
▁stamping	-12.5857
▁thrive	-12.5859
▁continent	-12.586
rack	-12.5861
▁rotat	-12.5862
▁esp	-12.5864
Kenna	-12.5868
rton	-12.5872
▁208	-12.5873
▁Hort	-12.5874
▁champ	-12.5875
▁acid	-12.5882
▁megawatt	-12.5884
▁Stark	-12.5891
▁342	-12.5893
▁1.76	-12.5895
▁Diet	-12.5895
▁Klo	-12.5897
▁Plat	-12.5899
▁serial	-12.59
▁mock	-12.59
▁trailer	-12.5901
▁BU	-12.5906
▁2.02	-12.5906
▁Kro	-12.5907
▁escap	-12.5908
▁skipp	-12.5918
▁Buyer	-12.5918
▁Chem	-12.5921
▁prose	-12.5927
42.5	-12.5937
▁butterf	-12.5946
▁184	-12.5951
▁Shipp	-12.5952
ators	-12.5955
8.32	-12.596
Line	-12.5964
▁documentar	-12.5969
udi	-12.5975
ik	-12.5975
▁undertake	-12.5975
▁Bik	-12.5975
gal	-12.5977
xcept	-12.598
▁Plast	-12.5981
▁EG	-12.5982
cial	-12.5983
▁Edels	-12.5984
▁CH	-12.5986
▁cosm	-12.5988
▁renegotiate	-12.5995
▁Hawk	-12.5998
▁Cla	-12.6007
▁laughing	-12.6009
▁Runn	-12.601
▁390	-12.6011
▁cassette	-12.6014
roadway	-12.6021
▁Bets	-12.6025
▁ec	-12.6027
onic	-12.6036
▁bog	-12.6039
▁hone	-12.6039
▁carve	-12.6042
▁354	-12.6042
▁Reid	-12.6048
▁19-	-12.6049
▁Oz	-12.6049
▁tally	-12.605
▁Tonk	-12.6054
orgi	-12.6058
▁physic	-12.6064
etrochemical	-12.6067
▁Adding	-12.6075
ilbert	-12.6077
rmal	-12.6084
▁malic	-12.609
▁Cay	-12.6112
▁lotter	-12.6112
.59	-12.6114
▁Kno	-12.6114
▁Bayer	-12.6117
▁Borde	-12.6119
icle	-12.6132
▁nam	-12.6133
▁abound	-12.6136
▁listener	-12.6141
▁slimm	-12.6147
▁concurren	-12.6155
▁nurser	-12.6158
integrated	-12.6159
▁Brod	-12.616
YER	-12.6162
▁Bori	-12.6166
▁rif	-12.617
▁sandwich	-12.6186
alized	-12.6191
elated	-12.6192
▁belonging	-12.6193
▁reiterat	-12.6199
omi	-12.62
▁interven	-12.62
▁impede	-12.6202
▁communis	-12.6205
mic	-12.6206
▁PRO	-12.6208
▁Asht	-12.6208
pled	-12.6213
▁Pys	-12.6215
▁outstrip	-12.6216
82.8	-12.6219
▁Bland	-12.6233
▁Kern	-12.6243
▁coaster	-12.6261
▁tooth	-12.6263
▁Elle	-12.6266
▁contender	-12.6272
▁squeez	-12.6275
maint	-12.6277
▁plott	-12.6279
▁fatalit	-12.6289
32.6	-12.6291
▁1\/	-12.63
thyl	-12.6304
▁alley	-12.6306
▁248	-12.6306
▁Verd	-12.631
INE	-12.631
wai	-12.6312
eigh	-12.6314
udden	-12.6314
▁sober	-12.6314
secr	-12.6315
▁relocat	-12.6319
ote	-12.6331
▁publicize	-12.6339
owl	-12.6342
▁cro	-12.6346
tall	-12.6348
ATA	-12.636
phom	-12.6363
▁programm	-12.6365
roke	-12.6366
lot	-12.6386
▁beam	-12.6392
▁McKin	-12.6408
4,7	-12.6425
undat	-12.6426
enter	-12.6428
ritz	-12.643
▁spe	-12.6433
erCar	-12.6446
iegel	-12.645
▁266	-12.6454
▁doll	-12.6462
▁tar	-12.6465
▁1,2	-12.6473
▁Bake	-12.6477
▁Lud	-12.6482
20.9	-12.6486
valu	-12.6491
▁Juli	-12.6492
1.3	-12.6495
aul	-12.6496
▁166	-12.651
shak	-12.6511
▁Myr	-12.6511
▁fli	-12.6514
▁Conse	-12.6515
▁ripe	-12.6518
▁Kad	-12.6523
▁basement	-12.6531
▁grind	-12.6538
▁1.46	-12.6548
▁broadcaster	-12.6553
▁Kos	-12.6554
ruise	-12.6559
08	-12.6563
▁stimul	-12.6565
▁2.87	-12.6566
▁tick	-12.6576
▁Guardia	-12.6584
▁Kal	-12.6585
strategic	-12.6585
▁Petrole	-12.6604
not	-12.6609
▁journalis	-12.661
▁buyout	-12.6613
▁vest	-12.6615
org	-12.6619
▁Hur	-12.6626
aron	-12.664
▁sow	-12.6642
795	-12.6643
▁amasse	-12.6646
▁Willi	-12.6647
▁embrac	-12.6657
▁sti	-12.6659
▁Till	-12.666
spor	-12.6665
mira	-12.6682
lai	-12.6686
ident	-12.6686
▁pleading	-12.6715
biolog	-12.6718
▁op	-12.6728
▁whitewa	-12.6728
onis	-12.6732
▁410	-12.6732
-12	-12.6735
udder	-12.674
cious	-12.6745
militar	-12.6751
▁Ing	-12.6752
▁8.01	-12.6752
LES	-12.6753
▁Cha	-12.6753
36.6	-12.6779
▁undermin	-12.6783
MER	-12.6789
erred	-12.6789
bri	-12.6801
▁lip	-12.6802
▁Greg	-12.6809
orous	-12.682
▁265	-12.684
▁screening	-12.6841
▁43.5	-12.6846
▁k	-12.6846
▁Corrupt	-12.6848
▁7.0	-12.6852
ads	-12.6853
▁Barri	-12.6859
▁Masi	-12.6867
▁assemble	-12.6867
5.9	-12.6869
66.8	-12.6873
ucker	-12.6879
3.31	-12.6884
▁comb	-12.689
ause	-12.6891
convertible	-12.6894
▁essen	-12.6899
▁1,85	-12.6899
▁vers	-12.6903
▁abus	-12.6905
lateral	-12.6915
discriminati	-12.6918
▁Ker	-12.6918
vote	-12.6927
▁67-	-12.6928
▁Feli	-12.6933
23.8	-12.6948
▁Pett	-12.6948
▁flap	-12.695
▁10.7	-12.6955
▁461	-12.6955
▁Lamb	-12.6961
▁Revis	-12.6966
rria	-12.6972
▁Harri	-12.6975
▁Sab	-12.6976
▁Male	-12.6977
▁intelligent	-12.6982
589	-12.6984
▁Form	-12.6989
ttison	-12.6993
rac	-12.7
▁gon	-12.7003
▁Manag	-12.701
asser	-12.7014
▁Tit	-12.7026
cell	-12.7032
▁Buff	-12.7032
▁Mu	-12.7035
▁Presid	-12.7038
95	-12.7046
▁shorten	-12.7056
▁repai	-12.7059
pear	-12.707
nesia	-12.7085
▁descend	-12.7089
▁legislat	-12.7089
▁perch	-12.7097
▁Geo	-12.7102
▁stain	-12.7108
lar	-12.711
▁disc	-12.7113
▁Kau	-12.7117
▁Pl	-12.7125
▁behav	-12.7135
▁Viro	-12.7138
leave	-12.7143
diction	-12.7149
rke	-12.7151
▁frag	-12.7153
cke	-12.7159
▁handicap	-12.7163
▁21.8	-12.7166
ude	-12.7168
▁assisted	-12.7178
▁Schwa	-12.7184
▁guid	-12.7187
pho	-12.719
▁refinance	-12.7196
▁div	-12.7198
1.4	-12.7201
suit	-12.7203
▁busi	-12.7209
EM	-12.721
new	-12.7232
▁Sign	-12.7236
31	-12.724
▁unde	-12.724
▁smil	-12.7242
21	-12.7255
▁substitut	-12.7259
▁Cold	-12.7275
parent	-12.7289
▁Shr	-12.7296
gging	-12.7302
▁640	-12.7303
▁Gala	-12.7307
▁156	-12.7312
▁Own	-12.7316
▁mai	-12.7324
▁Kenne	-12.7325
▁sadd	-12.7325
▁yea	-12.7328
▁21.2	-12.7329
ink	-12.7347
23.2	-12.7348
▁Groupe	-12.7353
iction	-12.7362
▁Mile	-12.7374
▁Chand	-12.7377
lower	-12.7378
▁advocat	-12.739
▁1.582	-12.7398
NV	-12.7407
▁11.3	-12.7408
▁ME	-12.7414
▁trac	-12.7415
cision	-12.7416
▁Cut	-12.7418
▁221	-12.7421
▁1.90	-12.7438
▁14.8	-12.7438
▁Speculati	-12.7439
och	-12.7441
▁lips	-12.7449
▁406	-12.7461
▁competenc	-12.7465
ioni	-12.7474
-199	-12.7475
▁chok	-12.7477
▁stretche	-12.748
▁glamo	-12.7488
▁570	-12.7492
▁Tib	-12.7495
EE	-12.7499
▁5.0	-12.7508
15,000	-12.7518
▁pressur	-12.752
▁sandwiche	-12.7533
▁Tro	-12.7534
▁Gla	-12.7536
▁11.2	-12.7539
una	-12.7539
erald	-12.7541
▁Eri	-12.7543
▁conv	-12.7545
▁battl	-12.7548
illi	-12.755
▁Solo	-12.7557
mb	-12.7559
▁perpetua	-12.7562
tari	-12.7574
30.1	-12.7578
arily	-12.7584
▁cry	-12.7587
writ	-12.7588
uite	-12.761
▁err	-12.761
▁overhea	-12.7613
▁dependenc	-12.7614
cio	-12.7621
▁confide	-12.7623
solv	-12.7628
▁Grove	-12.7634
▁decreas	-12.7638
▁Ceme	-12.7645
laine	-12.7649
1.8	-12.7649
60,000	-12.7651
▁0.01	-12.7657
▁Kil	-12.7662
urban	-12.7671
lution	-12.7685
▁mobilize	-12.7696
ampoo	-12.7697
ellin	-12.7698
▁26.5	-12.7701
eland	-12.7705
atory	-12.7715
▁dismantle	-12.7718
▁reschedule	-12.7719
Ti	-12.772
ief	-12.772
▁mach	-12.7722
2645	-12.7724
nger	-12.7725
▁54.5	-12.7726
▁177	-12.7732
3.6	-12.7739
urg	-12.7746
▁Ein	-12.7754
cit	-12.7755
▁Yo	-12.7766
▁gli	-12.7768
▁Copy	-12.777
cepti	-12.7777
▁overbuil	-12.7783
▁356	-12.7797
▁AP	-12.7801
▁allerg	-12.7801
NN	-12.7801
▁Basin	-12.781
▁eff	-12.7811
BC	-12.7811
▁alienat	-12.7822
▁267	-12.7845
MU	-12.7845
▁judg	-12.7849
meat	-12.7857
flu	-12.7861
▁Engle	-12.7862
rental	-12.7867
▁Mea	-12.7873
▁2.0	-12.7874
▁99.7	-12.7877
▁Tet	-12.7878
leaf	-12.7881
writer	-12.7887
▁Ti	-12.7888
megawatt	-12.7888
witch	-12.7889
▁commen	-12.7889
▁imitat	-12.7893
debt	-12.7895
Unit	-12.7896
▁Lav	-12.7897
glob	-12.7897
▁VI	-12.7897
coast	-12.7898
revolutionar	-12.7901
Dono	-12.7903
gallon	-12.7903
anche	-12.7904
FOR	-12.7904
emphasize	-12.7906
road	-12.7906
athlete	-12.7907
examine	-12.7908
Palestinian	-12.7908
insure	-12.7908
resident	-12.7908
▁sho	-12.7908
fifth	-12.7908
Clark	-12.7908
finish	-12.7909
wheel	-12.7909
▁Pru	-12.791
Honey	-12.791
perfect	-12.7911
connect	-12.7911
assign	-12.7912
distinguish	-12.7912
weapons	-12.7912
transport	-12.7912
heel	-12.7912
fraud	-12.7913
depress	-12.7913
neck	-12.7914
fellow	-12.7914
supplie	-12.7914
blue	-12.7914
assume	-12.7914
bias	-12.7914
▁19.2	-12.7914
telephone	-12.7915
vehicle	-12.7915
franc	-12.7915
heart	-12.7915
quake	-12.7916
Jaguar	-12.7916
important	-12.7916
Japan	-12.7916
period	-12.7916
British	-12.7916
Corp	-12.7917
three	-12.7917
minimum	-12.7918
Good	-12.7918
honor	-12.7919
Time	-12.7919
David	-12.792
Day	-12.792
licens	-12.792
William	-12.792
▁spect	-12.792
flight	-12.7921
steel	-12.7921
denomination	-12.7922
father	-12.7922
Nov	-12.7923
asset	-12.7923
demand	-12.7923
covering	-12.7925
retail	-12.7925
ates	-12.7926
nelli	-12.7928
recover	-12.7928
dozen	-12.7929
root	-12.7931
artner	-12.7934
wed	-12.7935
verse	-12.7935
uit	-12.7938
▁bake	-12.7938
fel	-12.7938
prepared	-12.7938
accept	-12.7943
elder	-12.7943
Gas	-12.7944
inner	-12.7945
LIN	-12.7952
7.87	-12.7954
ator	-12.7957
stopp	-12.7957
color	-12.7959
▁Liber	-12.7963
EG	-12.7963
oxin	-12.7967
placement	-12.7968
acquisition	-12.7969
manager	-12.7971
▁2,8	-12.7972
▁3,3	-12.798
▁GD	-12.798
▁Multi	-12.7981
sale	-12.7982
speed	-12.7984
▁9,	-12.7986
ssessment	-12.7991
hipping	-12.7992
measure	-12.7992
gang	-12.7994
nia	-12.7996
▁Nam	-12.7997
elix	-12.7998
winn	-12.7998
loft	-12.8
tree	-12.8005
▁equi	-12.8005
bove	-12.8009
▁entitl	-12.801
suppress	-12.8011
dona	-12.8012
rities	-12.8012
▁24.5	-12.8013
▁BE	-12.8017
owner	-12.8019
anhandle	-12.8023
▁Meet	-12.8024
▁Tempe	-12.8024
caster	-12.8024
▁Cardi	-12.8028
▁Sherr	-12.8029
tuition	-12.8033
OD	-12.8033
▁116	-12.8036
2.6	-12.8036
▁diploma	-12.8041
▁15.5	-12.8044
▁Democra	-12.8046
▁sensib	-12.8051
DO	-12.8051
nding	-12.8052
champ	-12.8062
▁sink	-12.8062
CD	-12.8064
reedom	-12.8065
serv	-12.8065
▁advoca	-12.8067
Cor	-12.8069
▁MC	-12.8075
▁arriv	-12.8077
here	-12.8078
vail	-12.8079
▁Propert	-12.808
▁Blan	-12.808
▁qualit	-12.8084
▁Emerg	-12.8085
▁Jewel	-12.8087
▁searche	-12.8088
▁HE	-12.8088
▁18.3	-12.8088
▁modif	-12.809
▁quantif	-12.8094
ccumulati	-12.8095
▁mathematic	-12.8097
zen	-12.8103
imene	-12.8105
▁distanc	-12.8105
ische	-12.8107
▁Trib	-12.8108
▁Fata	-12.8109
▁Cres	-12.811
IOU	-12.8111
▁Soft	-12.8115
USE	-12.8116
▁Levi	-12.8117
▁12:	-12.8117
STE	-12.8117
▁16.6	-12.8119
▁357	-12.812
▁persua	-12.812
▁allegi	-12.8125
▁admirabl	-12.8127
2009	-12.8128
ried	-12.8129
▁21.1	-12.8129
▁2,7	-12.813
▁chee	-12.813
▁Horn	-12.8135
cur	-12.8135
uter	-12.8137
▁211	-12.8137
acid	-12.8137
▁Privat	-12.8139
▁99.9	-12.8144
▁Riv	-12.8146
▁interv	-12.8146
eltz	-12.8148
ketch	-12.8149
▁sprinkle	-12.8149
cient	-12.815
luggish	-12.815
▁laund	-12.8151
▁Leavi	-12.8151
ige	-12.8152
insula	-12.8153
1,9	-12.8154
uperior	-12.8155
▁Dome	-12.8155
▁Spokes	-12.8157
▁obstruct	-12.8157
WG	-12.8158
▁destin	-12.8158
▁Investigat	-12.8158
▁Invest	-12.8158
awyer	-12.8159
izzi	-12.816
cratic	-12.816
▁Econom	-12.8161
▁mob	-12.8161
▁chop	-12.8162
▁timber	-12.8163
▁anonym	-12.8163
cide	-12.8163
▁clamp	-12.8163
llustrate	-12.8163
▁Muni	-12.8163
nfluence	-12.8164
▁solu	-12.8164
▁forfeit	-12.8164
uarte	-12.8164
4,830	-12.8164
Mithun	-12.8164
fertil	-12.8164
imbabwe	-12.8164
incriminati	-12.8164
servoir	-12.8164
therapeutic	-12.8164
▁4,34	-12.8164
▁747-400	-12.8164
▁Adjust	-12.8164
▁Administrator	-12.8164
▁Boehringer	-12.8164
▁COMPUTER	-12.8164
▁Cadbury	-12.8164
▁Carnegie	-12.8164
▁Conrail	-12.8164
▁Cosmetic	-12.8164
▁Counsel	-12.8164
▁Crawford	-12.8164
▁Expect	-12.8164
▁Finanziari	-12.8164
▁Hundred	-12.8164
▁Knowledge	-12.8164
▁MARK	-12.8164
▁Methodist	-12.8164
▁Observer	-12.8164
▁Purchas	-12.8164
▁Subsequent	-12.8164
▁Taxpayer	-12.8164
▁abduct	-12.8164
▁abstract	-12.8164
▁afflict	-12.8164
▁bulb	-12.8164
▁chauffeur	-12.8164
▁clarify	-12.8164
▁communicate	-12.8164
▁consummate	-12.8164
▁corridor	-12.8164
▁despair	-12.8164
▁electrogalvaniz	-12.8164
▁envelope	-12.8164
▁evangelist	-12.8164
▁fascinat	-12.8164
▁furnace	-12.8164
▁gloat	-12.8164
▁grapple	-12.8164
▁hesitant	-12.8164
▁hypocri	-12.8164
▁immigrant	-12.8164
▁impediment	-12.8164
▁inexperience	-12.8164
▁irreparabl	-12.8164
▁legitimize	-12.8164
▁letharg	-12.8164
▁lieutenant	-12.8164
▁monolith	-12.8164
▁obfuscat	-12.8164
▁parachut	-12.8164
▁patriarch	-12.8164
▁patriot	-12.8164
▁pistol	-12.8164
▁precarious	-12.8164
▁prerogative	-12.8164
▁propagand	-12.8164
▁psychoanaly	-12.8164
▁replenish	-12.8164
▁rumbling	-12.8164
▁schizophreni	-12.8164
▁schoolteacher	-12.8164
▁sculpture	-12.8164
▁spontaneous	-12.8164
▁stockpile	-12.8164
▁stratospher	-12.8164
▁superintendent	-12.8164
▁synerg	-12.8164
▁tribute	-12.8164
▁tropical	-12.8164
▁tycoon	-12.8164
▁umbrella	-12.8164
▁unilateral	-12.8164
▁unpleasant	-12.8164
▁waffle	-12.8164
▁Luxembourg	-12.8164
▁Pontiac	-12.8164
▁acrimon	-12.8164
▁cathode	-12.8164
▁cuckoo	-12.8164
▁deplor	-12.8164
▁emphatic	-12.8164
▁enlighten	-12.8164
▁immoral	-12.8164
▁offshoot	-12.8164
▁pedestrian	-12.8164
▁snail	-12.8164
▁acclaim	-12.8164
▁album	-12.8164
▁authentic	-12.8164
▁courage	-12.8164
▁disgust	-12.8164
▁invoke	-12.8164
▁opulen	-12.8164
▁overshadow	-12.8164
▁pummel	-12.8164
▁recalculat	-12.8164
▁screw	-12.8164
▁spearhead	-12.8164
▁collage	-12.8164
▁dwindl	-12.8164
▁grandmother	-12.8164
▁orphan	-12.8164
▁pyramid	-12.8164
▁steak	-12.8164
▁tonnage	-12.8164
▁Inspectorate	-12.8164
▁Minute	-12.8164
▁juggl	-12.8164
▁purport	-12.8164
▁savor	-12.8164
▁subvert	-12.8164
▁wreak	-12.8164
▁calamit	-12.8164
▁famine	-12.8164
▁hurl	-12.8164
▁reassert	-12.8164
▁watchdog	-12.8164
▁Loew	-12.8164
▁glove	-12.8164
▁imperative	-12.8164
▁nominate	-12.8164
▁splendid	-12.8164
▁drown	-12.8164
▁gilt	-12.8164
▁stubborn	-12.8164
▁zinc	-12.8164
vinyl	-12.8164
▁Corolla	-12.8164
▁Takashi	-12.8164
▁lull	-12.8164
▁prodig	-12.8164
▁Abra	-12.8164
▁Keynesian	-12.8164
▁absent	-12.8164
▁Ethic	-12.8164
▁inconsisten	-12.8164
▁problematic	-12.8164
▁turbo	-12.8164
▁Ordinar	-12.8164
▁astonish	-12.8164
▁screech	-12.8164
▁marvel	-12.8164
▁inexplicabl	-12.8164
▁dislocation	-12.8164
▁surre	-12.8164
▁Equal	-12.8164
▁grue	-12.8164
Leber	-12.8164
▁glitch	-12.8164
▁trivial	-12.8164
▁Liquid	-12.8164
rregula	-12.8164
▁castigat	-12.8164
▁dangl	-12.8164
▁foreclosure	-12.8164
▁drape	-12.8164
▁CONT	-12.8164
▁cardiac	-12.8164
▁scout	-12.8164
▁mishandl	-12.8164
asabl	-12.8164
▁McCorm	-12.8164
▁88.12	-12.8164
▁microwave	-12.8164
▁Animal	-12.8164
▁rerout	-12.8164
▁miniatur	-12.8165
▁Reichmann	-12.8165
▁impass	-12.8165
▁curator	-12.8165
▁transfusion	-12.8165
▁Nishi	-12.8165
▁flashlight	-12.8165
▁Dirk	-12.8165
▁LaMo	-12.8165
▁gratuitous	-12.8165
▁motel	-12.8165
▁Gusta	-12.8165
▁Salvator	-12.8165
▁Belmont	-12.8165
▁CHI	-12.8165
▁sift	-12.8165
▁blip	-12.8165
▁nail	-12.8165
▁Darwin	-12.8165
pruden	-12.8165
▁buttress	-12.8165
▁composition	-12.8165
▁McIn	-12.8165
▁essay	-12.8165
▁roadblock	-12.8165
▁spoile	-12.8165
ghett	-12.8165
▁bastion	-12.8165
▁flunk	-12.8165
▁Alamo	-12.8165
▁precipitous	-12.8165
▁Nacion	-12.8165
GAR	-12.8165
▁ardent	-12.8165
▁renown	-12.8165
▁Gluck	-12.8165
▁derail	-12.8165
▁gird	-12.8165
TECH	-12.8165
▁Cautio	-12.8165
▁disposition	-12.8165
▁landowner	-12.8165
▁fixture	-12.8165
▁glance	-12.8165
▁impound	-12.8165
▁Ghost	-12.8165
▁mercur	-12.8165
▁Jerem	-12.8165
▁southwest	-12.8165
▁glow	-12.8165
▁Charge	-12.8165
▁Confederation	-12.8165
▁ailment	-12.8165
▁oak	-12.8165
▁Diversifi	-12.8165
▁firefight	-12.8165
▁axiom	-12.8166
▁rekindl	-12.8166
▁117	-12.8166
▁bundle	-12.8166
▁Yellow	-12.8166
▁deterrent	-12.8166
▁naive	-12.8166
NAM	-12.8166
▁garner	-12.8166
▁protocol	-12.8166
▁append	-12.8166
▁artiller	-12.8166
▁mixture	-12.8166
▁celebrit	-12.8166
qualification	-12.8166
▁harass	-12.8166
▁shred	-12.8166
▁conceive	-12.8166
▁libert	-12.8166
▁parlor	-12.8166
▁whisper	-12.8166
▁statue	-12.8166
▁telex	-12.8166
ppy	-12.8166
▁diagnos	-12.8166
▁murk	-12.8166
▁Weinberg	-12.8166
▁Angl	-12.8166
▁purge	-12.8166
▁Brecht	-12.8166
▁piling	-12.8167
▁simulator	-12.8167
roponent	-12.8167
▁mistrial	-12.8167
,960	-12.8167
ribbon	-12.8167
▁reignite	-12.8167
▁thunder	-12.8167
▁Settle	-12.8167
▁PAY	-12.8167
▁realign	-12.8167
Cafe	-12.8167
▁numerical	-12.8167
▁fanci	-12.8168
▁airborne	-12.8168
▁torch	-12.8168
▁Taka	-12.8168
▁Carroll	-12.8168
▁stroll	-12.8168
IGHT	-12.8168
pendthrift	-12.8168
▁Remain	-12.8168
▁presage	-12.8168
▁Amaz	-12.8168
▁enroll	-12.8168
▁theorist	-12.8169
▁digest	-12.8169
▁dried	-12.8169
▁crimp	-12.8169
nsorti	-12.8169
▁Distribut	-12.8169
▁wallet	-12.8169
▁SONG	-12.8169
▁Kueh	-12.8169
▁McE	-12.817
▁thrill	-12.817
▁heav	-12.817
▁98.5	-12.817
▁obstruction	-12.8171
▁Hungarian	-12.8171
▁Eritrean	-12.8171
▁penalize	-12.8171
▁1948	-12.8171
▁shove	-12.8171
ameter	-12.8171
frik	-12.8171
▁faithful	-12.8172
▁bombard	-12.8172
▁silence	-12.8172
▁outpost	-12.8172
▁dirt	-12.8172
▁jock	-12.8172
▁58.9	-12.8172
intention	-12.8172
▁peel	-12.8172
▁piston	-12.8172
▁orange	-12.8172
▁wig	-12.8172
▁Archive	-12.8172
▁constructive	-12.8173
▁Champ	-12.8173
▁subcontractor	-12.8173
icip	-12.8173
▁Norbert	-12.8173
▁aisle	-12.8173
▁equate	-12.8173
cMill	-12.8173
▁Albu	-12.8174
▁Unde	-12.8174
▁942	-12.8174
▁marry	-12.8174
▁Election	-12.8175
▁pedal	-12.8175
▁Response	-12.8175
▁HU	-12.8175
▁shunn	-12.8175
▁Elect	-12.8175
▁fastball	-12.8175
▁appointee	-12.8175
▁banish	-12.8176
▁Locat	-12.8176
▁proposition	-12.8176
▁Ritter	-12.8176
▁scoff	-12.8176
apest	-12.8176
▁PRE	-12.8176
▁liar	-12.8176
▁Telecom	-12.8176
▁Physic	-12.8176
anje	-12.8176
trusion	-12.8176
afia	-12.8177
▁Clayt	-12.8177
▁McCra	-12.8177
▁valve	-12.8178
▁impatien	-12.8178
▁spru	-12.8178
▁8.90	-12.8178
▁Molo	-12.8178
▁1:	-12.8178
▁pinch	-12.8178
venge	-12.8178
rstar	-12.8178
▁DIG	-12.8178
stage	-12.8178
stylish	-12.8179
▁thrash	-12.8179
▁Mega	-12.8179
▁flea	-12.8179
riangle	-12.818
▁slaughter	-12.818
▁uneven	-12.8181
▁Hardi	-12.8181
▁McCle	-12.8181
▁Amtra	-12.8182
▁bruis	-12.8182
keptic	-12.8182
▁bac	-12.8182
▁Echo	-12.8183
▁Reward	-12.8183
▁Toni	-12.8183
▁Duck	-12.8183
sembl	-12.8184
▁4.68	-12.8184
▁Archer	-12.8184
▁27.8	-12.8184
▁addiction	-12.8184
▁2.90	-12.8185
▁coward	-12.8185
▁Heart	-12.8185
▁Sparta	-12.8185
▁pollster	-12.8185
▁Bulgarian	-12.8185
▁12.8	-12.8185
▁Racketeer	-12.8186
▁Salva	-12.8186
▁Payment	-12.8186
▁bulletin	-12.8186
▁conserv	-12.8186
▁dam	-12.8186
▁767	-12.8186
zl	-12.8187
▁Interco	-12.8187
▁usher	-12.8188
MG	-12.8188
▁Schim	-12.8189
chtel	-12.8189
▁invention	-12.8189
▁Range	-12.8189
▁Organi	-12.819
▁Harle	-12.819
▁Selki	-12.819
▁rigor	-12.8191
▁Esk	-12.8191
▁Supervisor	-12.8192
▁Sato	-12.8192
▁slum	-12.8192
▁mentor	-12.8193
▁standby	-12.8193
▁Schre	-12.8194
conceivabl	-12.8194
▁bogg	-12.8194
▁mechanical	-12.8194
▁Drago	-12.8194
▁Compu	-12.8194
▁Trent	-12.8194
meal	-12.8194
▁8.48	-12.8195
▁methan	-12.8196
▁Refin	-12.8196
acuse	-12.8197
▁cinema	-12.8197
▁Hano	-12.8197
▁flopp	-12.8197
▁embodie	-12.8198
▁Offer	-12.8199
itten	-12.8199
▁fabricate	-12.8199
▁beast	-12.8199
kward	-12.82
▁Afterward	-12.82
▁biographer	-12.82
▁peril	-12.82
▁countersui	-12.82
▁729	-12.82
TERS	-12.8201
▁3090	-12.8201
▁Vla	-12.8202
▁15.9	-12.8203
▁Curti	-12.8203
ocre	-12.8204
▁Tul	-12.8205
▁Wilder	-12.8205
▁Kita	-12.8205
▁lament	-12.8206
quip	-12.8206
▁successive	-12.8207
frog	-12.8207
▁viewpoint	-12.8208
▁Boule	-12.8208
▁Stro	-12.8209
▁Feld	-12.8209
▁querie	-12.8209
▁hamburger	-12.821
▁compulsi	-12.821
▁implant	-12.821
▁embark	-12.821
▁shipbuilder	-12.821
▁Corporation	-12.8211
▁Tide	-12.8211
▁clogg	-12.8211
▁certifi	-12.8212
▁laz	-12.8213
▁488	-12.8213
▁miserabl	-12.8214
▁Vanden	-12.8214
laughter	-12.8215
▁Algeria	-12.8215
▁Jude	-12.8217
▁kil	-12.8217
▁industrialist	-12.8217
LOG	-12.8217
▁defection	-12.8217
▁endow	-12.8218
▁321	-12.8218
EMIC	-12.8218
▁338	-12.8219
employee	-12.8219
▁patroniz	-12.8219
▁Know	-12.822
▁Melv	-12.822
▁continuous	-12.822
▁Pool	-12.8222
▁60.25	-12.8222
NA	-12.8223
▁moni	-12.8223
▁Progress	-12.8225
▁postmark	-12.8225
▁Save	-12.8226
▁inefficienc	-12.8226
▁Host	-12.8226
umble	-12.8227
37.6	-12.8227
▁cherr	-12.8227
▁possession	-12.8228
Innis	-12.8229
▁bang	-12.8229
▁Laura	-12.823
▁Seek	-12.823
▁1900	-12.8231
▁wrongful	-12.8231
▁cluster	-12.8232
▁mathematical	-12.8232
uire	-12.8232
▁resonan	-12.8233
OUS	-12.8235
ague	-12.8235
▁Faul	-12.8237
▁27.6	-12.8238
▁repel	-12.8238
▁alternate	-12.8238
▁Pointe	-12.8238
ira	-12.8239
▁brass	-12.824
45.2	-12.8241
▁33.3	-12.8241
publicize	-12.8242
▁brown	-12.8242
▁Rio	-12.8243
▁18.1	-12.8245
▁silen	-12.8246
▁shareholding	-12.8246
▁Julian	-12.8248
▁352	-12.8249
▁CV	-12.8249
▁Lenin	-12.8249
▁288	-12.825
[...]
